<unk>	0
<s>	0
</s>	0
、	-1.97556
の	-3.60246
。	-3.80342
・	-3.8275
を	-4.4785
や	-4.65701
等	-4.8271
▁	-4.85
に	-4.9733
及び	-5.10465
が	-5.1092
等の	-5.30621
する	-5.36808
し	-5.43369
と	-5.53083
は	-5.6888
事業	-5.77002
技術	-5.80944
研究	-5.9022
による	-5.91505
における	-5.91819
に関する	-5.94606
また	-5.95036
で	-5.98527
について	-6.05366
調査	-6.08586
を行う	-6.10983
平成	-6.13422
として	-6.14209
において	-6.19257
2	-6.24779
化	-6.2728
環境	-6.27348
年	-6.28708
により	-6.3227
への	-6.36289
補助率	-6.38153
に係る	-6.39596
システム	-6.39952
とともに	-6.41848
した	-6.43214
対策	-6.45633
地域	-6.47223
など	-6.47387
から	-6.4778
データ	-6.48834
評価	-6.50574
情報	-6.50952
開発	-6.51705
その	-6.56129
。・	-6.56133
研究開発	-6.60319
支援	-6.60847
年度	-6.62699
管理	-6.6273
である	-6.65862
性	-6.71518
出	-6.73416
な	-6.7359
ため	-6.75169
分析	-6.75357
を図る	-6.7573
を行い	-6.75838
に資する	-6.75959
5	-6.77522
我が国の	-6.77588
社会	-6.79152
のための	-6.79317
3	-6.79769
た	-6.80417
法	-6.82115
利用	-6.83618
を実施する	-6.85397
産業	-6.86302
活用	-6.87823
整備	-6.88342
定額	-6.90028
医療	-6.90637
に向けた	-6.90813
も	-6.92049
課題	-6.92221
的	-6.92504
業務	-6.93643
水	-6.94708
状況	-6.94749
国	-6.94907
て	-6.94962
1	-6.96584
国際	-6.98098
政策	-6.98545
施設	-6.98559
活動	-6.9882
我が国	-7.01517
実施	-7.02736
に必要な	-7.03582
る	-7.03851
では	-7.04139
的な	-7.04161
新たな	-7.0672
4	-7.06793
各	-7.08203
等を	-7.08847
導入	-7.10018
AI	-7.10326
令和	-7.11273
量	-7.11796
している	-7.1196
検討	-7.13365
に対する	-7.13926
推進	-7.14485
こと	-7.14689
り	-7.15203
者	-7.18065
い	-7.18167
機関	-7.19002
技術開発	-7.19224
の実施	-7.21159
を目指す	-7.22036
された	-7.22352
するとともに	-7.22466
して	-7.22505
企業	-7.23057
ー	-7.23512
試験	-7.23672
実証	-7.24205
を推進する	-7.24847
については	-7.25463
運用	-7.26008
エネルギー	-7.26949
~	-7.2701
ICT	-7.27077
取組	-7.27272
力	-7.27463
に基づき	-7.27737
30	-7.2774
かつ	-7.28246
用	-7.28416
基盤	-7.2844
中	-7.28709
教育	-7.30738
度	-7.31334
普及	-7.31361
制度	-7.31396
規制	-7.31552
を通じて	-7.32731
G	-7.33008
以下	-7.33113
研修	-7.33201
サービス	-7.33271
される	-7.33948
大学	-7.34129
関連	-7.34468
審査	-7.35085
計画	-7.3549
月	-7.36387
での	-7.36697
等を行う	-7.37023
に対して	-7.37186
ことを目的とする	-7.38182
機能	-7.38413
-	-7.38477
CO	-7.38784
の推進	-7.39973
原子力	-7.40462
資源	-7.40606
ことにより	-7.40794
補助	-7.41007
当該	-7.413
のため	-7.42117
健康	-7.4246
科学技術	-7.4293
高	-7.43052
生産	-7.43689
対応	-7.43809
型	-7.44539
数	-7.44571
機器	-7.44914
観測	-7.45126
日本	-7.45232
連携	-7.45644
面	-7.46171
海外	-7.46189
することにより	-7.46335
本	-7.47142
を活用した	-7.47893
の向上	-7.48325
各種	-7.49346
分野	-7.50221
安全	-7.50414
設備	-7.5046
大	-7.50931
の開発	-7.50933
医薬品	-7.51778
解析	-7.51782
するための	-7.52254
もの	-7.525
農業	-7.52806
関係	-7.53208
地域の	-7.53268
経済	-7.53357
行政	-7.53711
か	-7.54088
検証	-7.54672
基準	-7.5472
施策	-7.54946
向上	-7.55532
国民	-7.55918
ニーズ	-7.56785
を促進する	-7.56875
手法	-7.56883
29	-7.57142
事業者	-7.57498
R	-7.57537
生	-7.57556
プロジェクト	-7.57715
イノベーション	-7.5785
6	-7.58298
行	-7.5918
するため	-7.59375
等による	-7.59936
本事業では	-7.60403
促進	-7.60419
に基づく	-7.60497
の整備	-7.61188
ている	-7.61214
新	-7.61465
協力	-7.61678
地	-7.61764
を図るため	-7.61872
という	-7.62177
第	-7.62646
ネットワーク	-7.62848
ことで	-7.63169
実施する	-7.63414
さらに	-7.6366
定	-7.64709
同	-7.64875
拡大	-7.66093
を実施	-7.66099
被害	-7.66234
機	-7.66635
く	-7.66706
国内	-7.66989
適切な	-7.67816
所	-7.68014
国際的な	-7.68103
このため	-7.68105
情報を	-7.68276
に向けて	-7.6852
を実施し	-7.68537
処理	-7.6863
効果	-7.68771
できる	-7.69007
行う	-7.6911
人	-7.6939
検査	-7.69402
となる	-7.69437
並びに	-7.70046
を行うとともに	-7.70053
運営	-7.70114
設計	-7.702
人材	-7.70713
ン	-7.70841
拠点	-7.71758
10	-7.72655
物	-7.7275
経費	-7.72781
体制	-7.72851
森林	-7.73144
様々な	-7.7353
学	-7.73907
モデル	-7.73919
の導入	-7.74062
強化	-7.74393
経営	-7.74759
を支援する	-7.74812
科学	-7.74817
の実現	-7.74913
ことから	-7.75362
され	-7.75466
必要な	-7.75636
i	-7.75846
本事業は	-7.76007
技術の	-7.76245
へ	-7.76741
委託	-7.76859
的に	-7.77226
構築	-7.77419
日	-7.77751
構造	-7.77976
全国	-7.78322
ス	-7.7839
介護	-7.78477
人材育成	-7.79071
であり	-7.79096
統計	-7.79391
感染症	-7.79442
発生	-7.797
戦略	-7.79755
を含む	-7.80223
国内外の	-7.80329
の検討	-7.80747
などの	-7.8079
を図り	-7.81184
保全	-7.81572
7	-7.82046
ための	-7.82096
使用	-7.82781
等を実施する	-7.83029
/	-7.83364
多様な	-7.83372
削減	-7.83677
材料	-7.83903
これらの	-7.83998
体	-7.84425
省エネ	-7.84488
調査研究	-7.84575
改善	-7.84806
目標	-7.85187
費	-7.85211
プログラム	-7.85624
指導	-7.85738
研究者	-7.85995
種	-7.86739
作業	-7.8693
提供	-7.86946
A	-7.87573
内	-7.8759
食品	-7.87658
輸送	-7.88078
機構	-7.88088
合	-7.88111
の確保	-7.88166
世界	-7.88356
には	-7.89052
8	-7.89094
海洋	-7.89599
のうち	-7.89599
を踏まえ	-7.89707
S	-7.89857
の構築	-7.90102
することで	-7.90409
地震	-7.90466
事故	-7.90484
予測	-7.90494
効率的な	-7.90574
ない	-7.91087
技術の開発	-7.9119
災害	-7.91197
センター	-7.91199
との	-7.91352
ト	-7.91379
入	-7.91609
E	-7.91655
IoT	-7.91708
モニタリング	-7.91857
流通	-7.91897
これら	-7.92313
リスク	-7.92323
に貢献する	-7.92416
生活	-7.92512
交通	-7.92927
約	-7.94146
市場	-7.94147
、1、	-7.94148
事例	-7.94192
問題	-7.94707
性能	-7.9503
上	-7.95308
又は	-7.95465
の高度化	-7.95869
分野の	-7.9592
を進める	-7.96028
施設の	-7.96116
に対し	-7.96197
都道府県	-7.9656
の活用	-7.96608
中小企業	-7.96674
供給	-7.96722
を対象に	-7.96843
等が	-7.97279
が行う	-7.97329
後	-7.9759
特定	-7.9804
実	-7.98358
都市	-7.99157
通信	-7.99203
次世代	-7.9937
結果	-7.99813
等について	-7.99932
研究機関	-8.00026
年度から	-8.00157
う	-8.00533
28	-8.00829
化学物質	-8.01302
の促進	-8.01334
20	-8.01515
き	-8.01584
方法	-8.0167
事	-8.0185
め	-8.01897
場	-8.02182
すること	-8.02198
地方公共団体	-8.02226
専門家	-8.03103
動	-8.03157
自動車	-8.03229
もって	-8.03491
C	-8.03605
特に	-8.03631
の調査	-8.04213
可能な	-8.04281
情報提供	-8.04401
確保	-8.04424
を実現する	-8.04505
の取組	-8.04543
利活用	-8.04573
創出	-8.05113
D	-8.05232
学校	-8.05474
対象	-8.05779
業	-8.05872
情報収集	-8.06504
確認	-8.0657
においては	-8.0659
、2、	-8.0722
展開	-8.07248
海	-8.07271
より	-8.07402
政府	-8.07464
全	-8.07553
別	-8.07614
間	-8.07701
27	-8.07891
からの	-8.08001
1/2	-8.08764
省	-8.08785
一	-8.08943
類	-8.09046
気候変動	-8.09077
を活用し	-8.0963
部	-8.10271
民間	-8.10274
ア	-8.10505
以内	-8.10531
等に	-8.11152
予防	-8.11369
一般	-8.12056
外	-8.12061
等に関する	-8.12097
等により	-8.12447
を踏まえた	-8.12819
国立研究開発法人	-8.12877
整理	-8.13063
ル	-8.13253
総合	-8.13343
燃料	-8.13522
実用化	-8.13785
生産性向上	-8.14015
既存	-8.14069
ており	-8.14328
全国の	-8.14631
発	-8.14811
市町村	-8.15077
ラ	-8.15089
具体的には	-8.15099
製品	-8.1511
データを	-8.16105
リ	-8.16409
安全性	-8.16487
防災	-8.16494
診断	-8.1655
e	-8.16656
優れた	-8.16671
知見	-8.16869
、1/2	-8.1756
ものである	-8.17847
の状況	-8.17967
実験	-8.18026
新技術	-8.18118
以下の	-8.18126
インフラ	-8.1825
9	-8.18714
設置	-8.18879
え	-8.1901
改修	-8.19201
発展	-8.19402
発信	-8.19646
の作成	-8.19651
保	-8.19755
理	-8.19823
放射線	-8.19863
情報発信	-8.20112
26	-8.20216
効果的な	-8.20756
を推進し	-8.20862
大学等	-8.21039
産	-8.21099
作成	-8.21267
高度化	-8.21305
集計	-8.2152
住宅	-8.21544
定額補助	-8.21742
示	-8.2178
分野における	-8.22424
更新	-8.22914
重要	-8.22917
期	-8.23017
号	-8.23178
基礎	-8.23362
製造	-8.23903
まで	-8.24257
等における	-8.24699
高度	-8.24705
み	-8.24817
コスト	-8.2482
F	-8.24825
自治体	-8.24838
不	-8.24841
船	-8.24855
させ	-8.25111
実現	-8.25115
変化	-8.25129
課題解決	-8.25318
関係者	-8.25585
科学的	-8.25694
ロボット	-8.25716
されている	-8.25956
に関する研究	-8.26116
治療	-8.2646
レ	-8.26497
N	-8.26511
フ	-8.26573
先	-8.26579
福祉	-8.26581
措置	-8.26588
P	-8.26603
を活用して	-8.26954
下	-8.27011
必要がある	-8.27038
育成	-8.27295
す	-8.27399
知識	-8.27444
ほか	-8.27525
漁業	-8.28176
過	-8.2834
等を実施	-8.28343
保護	-8.2838
を行うことにより	-8.28673
質	-8.28704
労働	-8.29313
監視	-8.29338
によって	-8.29407
IT	-8.29544
標準	-8.29783
発電	-8.29826
電	-8.29937
れ	-8.30035
需要	-8.30105
登録	-8.30128
プラットフォーム	-8.30133
に向け	-8.30376
I	-8.30484
研究所	-8.30749
動向	-8.30913
ためには	-8.30974
時	-8.31209
公	-8.31424
達成	-8.31465
を有する	-8.31467
共有	-8.31622
デジタル	-8.31757
林業	-8.31949
会議	-8.31949
広く	-8.32092
医療機器	-8.32117
蓄積	-8.32671
維持管理	-8.32699
物質	-8.33049
を用いた	-8.33115
現場	-8.3317
イ	-8.3326
低	-8.33585
流	-8.33603
アジア	-8.33686
意	-8.33744
指定	-8.33772
H	-8.3379
といった	-8.33796
策定	-8.33842
地域における	-8.34256
養	-8.34602
とする	-8.34711
この	-8.34742
収集	-8.34743
の普及	-8.34864
プロセス	-8.3512
を確保する	-8.35195
令和元年度	-8.35229
に寄与する	-8.35279
場合	-8.35337
物流	-8.35428
データベース	-8.35478
集	-8.35499
組織	-8.35564
議論	-8.356
気	-8.35608
増	-8.35628
収	-8.35634
測定	-8.35657
システムの	-8.35987
への対応	-8.36501
長期	-8.37096
公共	-8.37215
会	-8.37345
多	-8.37525
原	-8.37551
知財	-8.37578
制御	-8.37604
および	-8.37607
提案	-8.37609
領域	-8.37616
技術的	-8.37649
って	-8.38456
維持	-8.38545
職員	-8.38653
成果	-8.39006
委員会	-8.39077
を開発する	-8.39081
自	-8.39476
料	-8.39506
を支援	-8.39535
費用	-8.39578
国民の	-8.39764
能力	-8.3986
を通じた	-8.39989
工	-8.40069
T	-8.40128
確立	-8.40149
装置	-8.40203
の効率化	-8.40386
事業化	-8.40447
各国	-8.41145
年度に	-8.41192
航空機	-8.41221
患者	-8.41455
との連携	-8.4152
資料	-8.41537
形成	-8.41589
を構築する	-8.41597
水素	-8.41609
生物	-8.41623
のある	-8.41952
学術	-8.42077
できるよう	-8.42121
理解	-8.42628
額	-8.42825
工事	-8.4286
24	-8.42999
現地	-8.43032
を通じ	-8.43091
ために	-8.43256
革新的	-8.43492
目的	-8.43531
害	-8.43567
報告書	-8.43569
前	-8.43571
疾病	-8.4358
資金	-8.43614
文部科学省	-8.43615
電子	-8.43619
地方	-8.43626
の高い	-8.43666
立案	-8.43812
防止	-8.43863
実態	-8.43871
時間	-8.43893
消費者	-8.43905
上で	-8.44308
等への	-8.44668
しつつ	-8.44913
つつ	-8.45376
を推進するため	-8.4543
開催	-8.45557
を促進するため	-8.4559
長	-8.45631
回	-8.45655
効率化	-8.45669
再エネ	-8.45675
道路	-8.4568
輸出	-8.45687
海域	-8.45714
条約	-8.45728
振興	-8.45735
が実施する	-8.45837
の強化	-8.45857
を可能とする	-8.46006
を整備する	-8.46183
情報の	-8.46203
温室効果ガス	-8.46686
成	-8.4754
全体の	-8.47603
再生	-8.47732
器	-8.47733
事務	-8.47744
表	-8.47748
更なる	-8.47767
線	-8.47781
条件	-8.478
等を行い	-8.47803
加工	-8.47853
今後の	-8.47959
国際機関	-8.4816
国の	-8.48354
マ	-8.48365
将来	-8.48714
分	-8.4886
解決	-8.4905
ま	-8.4914
上の	-8.4924
見直し	-8.49403
実証事業	-8.496
の策定	-8.49647
社会実装	-8.49671
品	-8.49802
の研究	-8.4983
知	-8.4985
今後	-8.49872
シ	-8.49895
条	-8.49903
要	-8.49916
カ	-8.49917
V	-8.49941
耐	-8.49998
港湾	-8.50014
年度にかけて	-8.50164
に取り組む	-8.50574
の拡大	-8.50838
の発展	-8.51254
を図るとともに	-8.5151
O	-8.51886
段階	-8.51912
そのため	-8.5205
薬	-8.52108
実践	-8.52132
交付	-8.52141
基本計画	-8.5218
負担	-8.52192
L	-8.52209
ワクチン	-8.52228
を支える	-8.52232
動物	-8.52237
放送	-8.52243
測量	-8.52244
調査票	-8.52262
電力	-8.52283
高度な	-8.52377
農	-8.52425
った	-8.52467
利用者	-8.52745
次	-8.52764
員	-8.52802
等において	-8.52907
を実施するとともに	-8.53476
実態調査	-8.53832
に向けた取組	-8.54307
共通	-8.54341
ド	-8.54435
認定	-8.5444
当	-8.54445
船舶	-8.54489
団体	-8.54498
技術を	-8.54643
M	-8.5465
取得	-8.54784
大規模	-8.55055
総合的な	-8.55413
継続的に	-8.55489
者の	-8.55636
排出	-8.5576
取	-8.55884
に関する調査	-8.56054
現状	-8.56108
主体	-8.56296
低減	-8.56364
学生	-8.56388
諸	-8.56568
厚生労働省	-8.56613
精度	-8.56625
予定	-8.56636
材	-8.56646
省エネルギー	-8.56732
食	-8.56763
病	-8.568
にかかる	-8.56818
W	-8.5682
に伴う	-8.56822
テーマ	-8.56823
それ	-8.56827
助成	-8.56828
公開	-8.5683
革新的な	-8.56957
重要な	-8.56981
域	-8.57637
ガイドライン	-8.57737
を行っている	-8.57753
に資するため	-8.57843
つ	-8.57901
専門	-8.58059
自然	-8.58447
ために必要な	-8.58675
安定	-8.58797
セキュリティ	-8.58998
我が国における	-8.59037
安心	-8.59064
無	-8.59155
重	-8.59158
官	-8.59158
石油	-8.59182
非	-8.59196
個人	-8.59198
現在	-8.59206
河川	-8.59209
法人	-8.59455
ような	-8.59579
再	-8.59676
の支援	-8.60057
本事業	-8.60292
障害	-8.60468
内容	-8.60476
統計調査	-8.60868
点	-8.60957
方	-8.61011
の実態	-8.6113
目	-8.61507
率	-8.61533
スタートアップ	-8.61559
汚染	-8.61611
に応じて	-8.61628
期間	-8.61642
改良	-8.61646
広域	-8.61648
ていく	-8.61757
放射性物質	-8.61835
がん	-8.62067
公表	-8.62198
の維持	-8.62348
を構築し	-8.62476
ます	-8.62525
の改善	-8.62578
け	-8.62922
加速	-8.63766
の開催	-8.63835
終了予定	-8.6394
作	-8.63985
普及啓発	-8.64
熱	-8.64047
決定	-8.64058
こ	-8.64072
調整	-8.6408
庁	-8.64086
規格	-8.64137
に伴い	-8.64139
J	-8.64139
再生可能エネルギー	-8.64141
OECD	-8.64141
車両	-8.64149
世帯	-8.64157
なし	-8.64352
に必要となる	-8.64809
時の	-8.64823
企業等	-8.64914
事業所	-8.6493
することを目的とする	-8.65197
設定	-8.6554
信頼性	-8.65554
▁我が国の	-8.65869
統合	-8.66005
情報の収集	-8.66413
える	-8.66426
火山	-8.66571
緊急	-8.66584
に加え	-8.66611
信	-8.66631
テ	-8.66665
県	-8.66687
l	-8.66691
相談	-8.66704
を用いて	-8.66707
予算	-8.6671
IAEA	-8.66718
福島県	-8.6672
の充実	-8.66728
重点	-8.66826
に関して	-8.66916
を推進	-8.66941
2020	-8.66961
させる	-8.66993
に関する調査研究	-8.67244
等を通じて	-8.67252
支援を行う	-8.67287
高い	-8.67411
当該事業	-8.6781
国内の	-8.68052
21	-8.6812
の活動	-8.68201
これ	-8.68274
B	-8.68346
ことが	-8.6866
近年	-8.68688
基本	-8.6869
を促進し	-8.68748
可能性	-8.68785
推進事業	-8.6897
保健	-8.68995
、3、	-8.69052
源	-8.69288
拠出金	-8.69299
式	-8.69306
島	-8.6932
承認	-8.69344
リサイクル	-8.69361
空間	-8.69405
意識	-8.6962
がある	-8.69735
建築物	-8.69934
となっている	-8.70102
を作成する	-8.70225
生産性	-8.70291
化学物質の	-8.70452
軽減	-8.71112
支援事業	-8.71322
最新の	-8.71424
を提供する	-8.71502
指針	-8.71723
情報通信	-8.71736
を把握し	-8.71894
交流	-8.7195
特許	-8.71954
予	-8.71957
路	-8.71973
未	-8.72012
位	-8.72016
被	-8.72018
ジ	-8.72022
直	-8.72025
新規	-8.72027
品質	-8.72028
対処	-8.72035
津波	-8.72048
産地	-8.72061
予防接種	-8.72063
を対象とした	-8.72089
継続	-8.72097
に対応した	-8.72114
関係機関	-8.7231
排出削減	-8.72372
効率的	-8.72947
基盤技術	-8.73107
共同研究	-8.73322
の把握	-8.73795
の形成	-8.73837
研究成果	-8.74251
参加	-8.74254
他	-8.74452
早期	-8.74555
核	-8.74666
改革	-8.74727
課題の解決	-8.74795
エ	-8.74803
指標	-8.74807
超	-8.7481
バイオ	-8.74813
ブ	-8.74817
医師	-8.74819
名	-8.7482
しており	-8.74821
U	-8.74823
幅広い	-8.74829
日本の	-8.74844
なお	-8.74888
価格	-8.74899
効果的	-8.74963
国際標準化	-8.74966
25	-8.75158
受	-8.753
月に	-8.75637
リスク評価	-8.75706
規模	-8.75821
を確保するため	-8.75891
の円滑な	-8.76431
の評価	-8.76603
年間	-8.76798
図	-8.7726
金	-8.77367
づくり	-8.77552
空	-8.77586
年に	-8.77593
見	-8.77608
改正	-8.7761
補	-8.77626
結	-8.77628
対	-8.77631
地理空間情報	-8.77666
充実	-8.77677
エコシステム	-8.77677
素材	-8.77687
診療	-8.77688
学習	-8.77698
具体的な	-8.77698
回収	-8.7771
国土	-8.77767
を把握する	-8.7805
にある	-8.7806
の防止	-8.78335
社会的	-8.78339
改	-8.78477
我が国が	-8.78555
%	-8.7859
をはじめとする	-8.78807
臨床研究	-8.78839
を強化する	-8.78896
方策	-8.78897
全体	-8.79162
系	-8.79401
そ	-8.79466
効率的に	-8.7957
既存の	-8.79621
応用	-8.79698
衛生	-8.79736
に関する法律	-8.79778
独立行政法人	-8.79788
途上国	-8.79827
効率	-8.80161
強	-8.80306
適用	-8.80377
現	-8.8041
地球温暖化	-8.80443
子	-8.80464
深	-8.80523
局	-8.80524
実装	-8.80548
職	-8.80554
来	-8.80562
口	-8.80564
製	-8.80565
ビジネス	-8.80565
生態系	-8.80569
々	-8.80571
価値	-8.80604
福島	-8.80605
知的財産	-8.80609
義務	-8.80612
実績	-8.80612
複数の	-8.80613
担い手	-8.80613
メ	-8.80614
人工知能	-8.80615
ことを目的としている	-8.80616
ツール	-8.80618
パ	-8.80619
無線	-8.80625
高速	-8.80627
変動	-8.80647
地方自治体	-8.80659
その他	-8.80797
官民	-8.80904
国際協力	-8.80929
研究試作	-8.80961
事項	-8.81032
木材	-8.81054
を進め	-8.81218
海上	-8.81282
共同	-8.81417
。2。	-8.81474
これまで	-8.81518
世界の	-8.81963
リー	-8.82223
建設	-8.82238
していく	-8.82238
の生産	-8.82448
検討を行う	-8.82727
SDGs	-8.82822
実証を行う	-8.83045
解明	-8.83125
高齢者	-8.83145
形	-8.83299
開始	-8.8333
年度から令和	-8.83334
医療機関	-8.83478
有	-8.83584
査	-8.83589
投資	-8.83591
仕様	-8.83614
周辺	-8.83618
ガス	-8.83621
ウ	-8.83634
土	-8.83637
状態	-8.83638
圧	-8.83645
周波数	-8.83645
項目	-8.83647
わ	-8.83648
金属	-8.83662
に必要な経費	-8.83755
際	-8.8382
年度より	-8.83931
情報共有	-8.84045
の創出	-8.84481
られる	-8.84704
の観点から	-8.84712
、20	-8.84763
地下水	-8.84823
までの	-8.85228
海外の	-8.85339
向け	-8.85348
協議	-8.85379
に応じた	-8.85482
タ	-8.85565
主	-8.85576
提供する	-8.85748
に関し	-8.8583
環境整備	-8.86085
先端技術	-8.86123
外部	-8.86197
共用	-8.86234
立	-8.86478
ら	-8.86579
持続可能な	-8.86628
資源管理	-8.86676
教	-8.86683
林	-8.86688
a	-8.86744
成長	-8.8675
民間企業	-8.86753
財政	-8.86754
テレワーク	-8.86763
サイバー攻撃	-8.86763
室	-8.86778
すべき	-8.8678
病院	-8.86785
予定である	-8.87098
調査を実施する	-8.87587
後の	-8.87626
を実施することにより	-8.88015
の検証	-8.88673
等に係る	-8.88996
施設の整備	-8.89087
の収集	-8.89304
を目的とする	-8.89513
保険	-8.89515
よう	-8.89601
感染	-8.8972
老朽化	-8.89826
の影響	-8.89877
着	-8.89916
在	-8.89923
正	-8.89925
さ	-8.8995
をはじめ	-8.89952
装	-8.89955
ット	-8.8997
選択	-8.89978
除	-8.89989
病原体	-8.89989
デ	-8.89997
処分	-8.89998
n	-8.89999
点検	-8.90002
取引	-8.90002
火災	-8.90005
移動	-8.90018
機会	-8.90029
品種	-8.90033
に対応するため	-8.90162
を設置し	-8.90213
基礎的な	-8.90281
民間企業等	-8.90362
の安全性	-8.90554
技術基準	-8.90933
つの	-8.91189
開発途上国	-8.91252
情報や	-8.91313
標準化	-8.91374
においても	-8.91445
23	-8.91551
を実現するため	-8.91648
可能	-8.917
られ	-8.91838
のあり方	-8.91879
諸外国	-8.91984
られた	-8.92193
適正	-8.9231
1/3	-8.92389
につながる	-8.92436
を維持	-8.9246
の利用	-8.92622
家	-8.92664
としての	-8.92812
の育成	-8.93011
案	-8.9324
マネジメント	-8.9327
存	-8.93272
市	-8.93281
セミナー	-8.93287
光	-8.9329
万円	-8.93294
波	-8.93301
認証	-8.93304
を担う	-8.93305
起	-8.93312
獲得	-8.93312
病害虫	-8.93326
家畜	-8.93326
回復	-8.93328
キ	-8.93328
Society	-8.9333
5。0	-8.93333
規定	-8.93339
適正な	-8.93343
防除	-8.93353
に関連する	-8.93359
のために	-8.9338
への影響	-8.93384
例	-8.93564
施設整備	-8.93663
ところ	-8.93708
安全な	-8.93964
観点から	-8.94162
産業界	-8.94209
間の	-8.94227
電波	-8.94508
コ	-8.94628
推進する	-8.94778
設備の	-8.95059
の提供	-8.95105
を図ることを目的とする	-8.95201
臨床	-8.95208
を行うための	-8.95284
を行うこと	-8.95296
そこで	-8.95362
元	-8.95521
の業務	-8.95625
調達	-8.95771
学術研究	-8.95886
ん	-8.96066
国際的	-8.96075
ること	-8.96242
の運営	-8.96318
水準	-8.96558
制度の	-8.96601
あ	-8.96607
運転	-8.96621
科	-8.96646
広報	-8.96681
送	-8.96688
生物多様性	-8.9669
明	-8.96699
接	-8.96712
の振興	-8.96712
施工	-8.9674
伝	-8.96754
車	-8.96758
ポテンシャル	-8.96768
警	-8.96773
鉄道	-8.96775
水銀	-8.96778
ミ	-8.9678
直接	-8.96787
側	-8.96788
ユーザー	-8.9679
下水道	-8.96795
上げ	-8.96796
にも	-8.96806
農薬	-8.96816
サ	-8.96818
人材の育成	-8.96822
先進的な	-8.96867
基礎的	-8.9687
保健医療	-8.96918
地上	-8.97218
基礎研究	-8.97272
国家	-8.97385
一層	-8.97447
▁近年	-8.97829
啓発	-8.98015
を試作し	-8.98073
調査を実施し	-8.98465
するために	-8.98506
法第	-8.98739
レベル	-8.98997
補助金	-8.99204
未来	-8.99392
視	-8.99512
基盤の整備	-8.9955
の管理	-8.9975
消費	-8.9976
を検討する	-8.9989
文	-9.00081
手	-9.00175
集約	-9.00178
採択	-9.00208
支	-9.00212
気象	-9.00222
向	-9.00251
訓練	-9.00271
道	-9.00277
防	-9.00286
介	-9.00305
層	-9.00315
歯科	-9.0032
せ	-9.00321
断	-9.00324
万	-9.00331
分布	-9.00339
有識者	-9.00341
血	-9.00343
センサ	-9.00348
計測	-9.00352
防護	-9.00352
経験	-9.00353
を促す	-9.00366
新しい	-9.00369
ルール	-9.00383
ものづくり	-9.00433
、1/2、	-9.00686
。1。	-9.00726
変革	-9.00749
s	-9.01043
等を支援する	-9.01128
必要となる	-9.0119
最新	-9.01214
の発生	-9.01229
会合	-9.01243
位置	-9.01312
調査結果	-9.01314
スト	-9.01548
おり	-9.0177
事業を実施する	-9.02499
安全対策	-9.02623
に資することを目的とする	-9.02678
特性	-9.03166
木	-9.03259
科学的知見	-9.03296
利	-9.0348
地域で	-9.03682
グローバル	-9.03723
シーズ	-9.03794
脱炭素	-9.03862
インターネット	-9.03985
助	-9.03991
他の	-9.03996
少	-9.04003
国連	-9.04007
東京	-9.04017
減	-9.04018
山	-9.04029
グ	-9.04036
細	-9.0404
大きな	-9.04042
判断	-9.04045
社会保障	-9.04046
コンソーシアム	-9.04049
輸入	-9.04049
地区	-9.04052
根	-9.04054
企画	-9.04054
経済産業省	-9.04054
の課題	-9.04059
研究を終了	-9.04059
スポーツ	-9.04059
ノウハウ	-9.04063
微生物	-9.04077
を対象として	-9.04124
国が	-9.04127
水道	-9.04136
迅速な	-9.04146
の効果	-9.04186
政策立案	-9.0422
等を実施し	-9.0428
その他の	-9.04326
各種施策	-9.04327
に反映する	-9.04664
環境の整備	-9.04905
労働者	-9.04949
通	-9.05015
システムの構築	-9.05043
の実証	-9.05415
のみならず	-9.05528
を実施している	-9.05569
機器の	-9.05624
12	-9.05653
業者	-9.06025
必要	-9.06097
中で	-9.06625
水質	-9.06684
適応	-9.06691
地球	-9.07163
でも	-9.07278
げ	-9.07432
するもの	-9.07704
取組を支援する	-9.07725
ロ	-9.07758
小	-9.07781
提言	-9.07807
部門	-9.07807
経	-9.07817
開	-9.07836
併せて	-9.07898
箇所	-9.07898
台風	-9.07901
を中心に	-9.07908
協定	-9.07909
創造	-9.07911
農林水産業	-9.07912
機動	-9.07915
原料	-9.07932
につなげる	-9.07938
2019	-9.07954
戦略的に	-9.07955
工場	-9.07964
成果を	-9.07964
サイバーセキュリティ	-9.0797
中核	-9.07977
に関する研究開発	-9.08116
これにより	-9.08175
それら	-9.08526
航空	-9.08563
が求められている	-9.08888
の減少	-9.08998
の利活用	-9.09079
ク	-9.09194
網	-9.09309
国際社会	-9.09377
を目的とした	-9.09508
が可能な	-9.09519
を総合的に	-9.09577
等を踏まえ	-9.09589
途上国の	-9.09867
将来の	-9.09981
基盤整備	-9.09993
養殖	-9.10138
戦略的	-9.10332
分析し	-9.10365
を作成し	-9.10469
の運用	-9.10547
海洋環境	-9.10687
型の	-9.11617
社会の	-9.11627
参画	-9.11671
策	-9.11727
住	-9.11736
管	-9.1176
広	-9.11818
に提供する	-9.11818
書	-9.11835
ち	-9.11864
t	-9.11871
フォーラム	-9.11873
索	-9.11878
還元	-9.11878
戦	-9.1188
個別	-9.1188
こうした	-9.1189
雇用	-9.11893
空港	-9.11895
基金	-9.11896
割	-9.11897
観光	-9.11898
年度まで	-9.119
ビッグデータ	-9.11901
範囲	-9.11901
相手国	-9.11902
児	-9.11902
要求	-9.11911
レーダ	-9.11911
二酸化炭素	-9.11914
復興	-9.11922
保存	-9.1193
食料	-9.11943
の質	-9.11949
従来	-9.11998
農地	-9.12002
シミュレーション	-9.12061
脱炭素化	-9.12103
患者の	-9.12136
の低減	-9.12171
等を活用した	-9.12172
環境省	-9.12427
についての	-9.1257
の増加	-9.12597
観測データ	-9.126
内の	-9.12904
を行うことで	-9.13061
以上	-9.13078
その成果を	-9.13127
行政機関	-9.13179
システムの開発	-9.13196
集積	-9.13221
等と	-9.13268
公募	-9.13383
等に資する	-9.1341
系統	-9.13503
取組を支援	-9.13534
試作	-9.1354
を支援し	-9.1419
施設等	-9.14448
大気	-9.15139
国内外	-9.15272
及びその	-9.15367
2/3	-9.15523
サプライチェーン	-9.1558
委託事業	-9.15711
環境保全	-9.15738
加速化	-9.1578
中の	-9.15802
適	-9.15848
計	-9.15881
選	-9.15974
野	-9.15981
益	-9.16023
抑制	-9.16045
サイト	-9.16053
プラスチック	-9.16053
国土交通省	-9.16053
ナ	-9.16054
m	-9.16055
講習	-9.16057
接続	-9.16058
ソフトウェア	-9.16061
構想	-9.16061
ZEH	-9.16065
二国間	-9.16065
上記	-9.16066
避難	-9.16066
ごとに	-9.16076
時代	-9.16077
不足	-9.16078
捕獲	-9.16079
本格	-9.16109
専門家による	-9.16111
部品	-9.16134
国民に	-9.16167
増大	-9.16188
体制の構築	-9.16205
15	-9.16208
体制整備	-9.16509
ール	-9.16576
なく	-9.16583
ック	-9.16656
ながら	-9.16774
を高める	-9.16824
推計	-9.16828
情報通信技術	-9.16962
が必要	-9.16966
拡充	-9.17556
IP	-9.18218
クラウド	-9.18355
原子力施設	-9.18499
を創出する	-9.18821
国際的に	-9.19013
技術者	-9.19069
を目指し	-9.19121
等を行うことにより	-9.19421
を明らかにする	-9.1945
特	-9.19501
増加	-9.19695
と共に	-9.20074
施行	-9.20084
変	-9.20191
確	-9.20237
ための調査	-9.20288
困難	-9.20289
務	-9.20295
組	-9.20317
命	-9.20327
医	-9.20342
配	-9.20357
廃棄物	-9.2037
オ	-9.20377
由来	-9.20378
o	-9.20379
負荷	-9.20392
止	-9.20394
放	-9.20395
役割	-9.20403
ず	-9.20404
に関わる	-9.20406
アフリカ	-9.20407
助言	-9.20409
蓄電池	-9.20409
相互	-9.20414
オンライン	-9.20416
マニュアル	-9.20417
u	-9.20417
解消	-9.20425
代替	-9.20425
損	-9.20429
特別	-9.20439
人口	-9.20442
日閣議決定	-9.20455
入手	-9.2046
事前	-9.20485
を含めた	-9.20495
人工	-9.2051
毒性	-9.20525
令和元年	-9.20531
を基に	-9.2061
の重要性	-9.20645
体制の整備	-9.20652
を受け	-9.20844
が求められる	-9.2087
等に必要な	-9.2089
戦略的な	-9.20912
更に	-9.20939
関心	-9.21201
取り組む	-9.21222
試験研究	-9.21332
要素技術	-9.21587
を推進することにより	-9.21791
基礎資料	-9.21801
取りまとめ	-9.21868
等から	-9.22293
の活性化	-9.22387
等に対する	-9.22545
研究活動	-9.22655
の動向	-9.22712
▁国立研究開発法人	-9.22799
ける	-9.22948
2/3、	-9.23094
地方公共団体等	-9.23096
一部	-9.2311
高効率	-9.23466
利用する	-9.23774
の研究開発	-9.23808
改定	-9.23852
を確立する	-9.23945
加	-9.24017
とし	-9.24213
に対応し	-9.24301
ベンチャー	-9.24371
の削減	-9.24421
に向けた検討	-9.24423
中小企業等	-9.24443
22	-9.24593
要因	-9.24601
お	-9.24735
を開催し	-9.24744
創	-9.24754
スマート	-9.24879
給	-9.24888
使	-9.24893
習	-9.24903
症	-9.24906
建築	-9.24913
観	-9.24917
状	-9.24925
に当たって	-9.2494
エビデンス	-9.24946
需給	-9.24947
方針	-9.24948
ウイルス	-9.24949
ホームページ	-9.24951
ム	-9.24954
協働	-9.24957
追加	-9.24958
準備	-9.24965
燃料電池	-9.24968
日本原子力研究開発機構	-9.24969
強み	-9.2497
総務省	-9.24971
保管	-9.24985
表示	-9.25012
質の高い	-9.25061
強い	-9.25096
しかし	-9.25122
強化を図る	-9.25195
就業	-9.25199
安定的な	-9.25225
14	-9.25308
の下で	-9.2541
同時に	-9.25469
生活環境	-9.25686
有効性	-9.25723
地球規模	-9.25777
の社会実装	-9.25847
研究を行い	-9.25932
環境基準	-9.25961
等で	-9.25982
水産	-9.2601
についても	-9.2608
19	-9.26084
とりまとめ	-9.26317
促進を図る	-9.2634
支援する	-9.26388
科学者	-9.26464
ター	-9.2666
技術や	-9.26672
整理する	-9.26755
経済的	-9.27241
の安全	-9.27245
の最適化	-9.27311
活動の	-9.2734
サービスの	-9.27424
各国の	-9.27699
調査及び	-9.27709
定める	-9.27832
を育成	-9.27836
を調査し	-9.27954
付	-9.27997
に関する検討	-9.2804
の仕組み	-9.28129
公表する	-9.28171
民	-9.2847
等の整備	-9.28635
を向上させる	-9.28735
行い	-9.28771
の成果	-9.28921
評価手法	-9.28998
加えて	-9.29024
技術的知見	-9.29167
融合	-9.29377
住民の	-9.29407
毎	-9.2956
毒	-9.29594
応	-9.29598
決	-9.29663
炉	-9.2968
ノ	-9.2969
鑑定	-9.29702
試験を実施した後	-9.29704
発揮	-9.29706
調和	-9.29707
対話	-9.29708
トラック	-9.29709
現象	-9.29711
廃	-9.29713
K	-9.29715
易	-9.29716
急	-9.29718
イベント	-9.2972
変更	-9.29721
電気	-9.29721
模	-9.29723
加盟国	-9.29724
引き続き	-9.29725
試料	-9.29728
ャ	-9.29731
用途	-9.29733
分担金	-9.29735
の場	-9.29736
密接	-9.29736
沖	-9.29737
農林水産物	-9.29739
意見	-9.29762
最適な	-9.29791
米国	-9.29828
調査を行う	-9.29835
定期	-9.29856
PM	-9.29858
国際共同研究	-9.29899
文化	-9.29943
を活用する	-9.29999
にあたり	-9.3001
技術シーズ	-9.30035
新エネルギー	-9.30102
保険者	-9.3024
を支援することにより	-9.30401
を行うことを目的とする	-9.30491
ことができる	-9.30664
内外の	-9.30696
水産資源	-9.30765
を開発し	-9.30803
13	-9.30863
事業費	-9.30979
自然環境	-9.31131
ある	-9.31172
教育研究	-9.31336
以外の	-9.3137
を適切に	-9.31673
枠組み	-9.31694
等の調査	-9.3172
障害者	-9.31871
結果を	-9.31913
等を活用し	-9.32358
性の高い	-9.32383
行動	-9.32481
その結果	-9.32549
の実用化	-9.32668
地球環境	-9.32924
国立大学法人	-9.33062
関	-9.33212
自立	-9.33242
小型	-9.3342
しい	-9.33474
べき	-9.33537
イン	-9.33679
近	-9.33817
国際会議	-9.33832
持続的	-9.33893
▁我が国	-9.33985
に活用する	-9.33991
等を通じた	-9.34036
の枠組み	-9.34093
先端	-9.34103
10/10。	-9.3426
間で	-9.34274
計上	-9.34516
以降	-9.34544
育	-9.34555
従来の	-9.34603
風	-9.34634
修	-9.34642
魚	-9.34644
運輸部門	-9.34668
防衛	-9.34672
帯	-9.3468
バイオマス	-9.34682
ビ	-9.34682
の実現に向け	-9.34687
両	-9.34693
安全保障	-9.34696
農山漁村	-9.34697
に与える影響	-9.347
植物	-9.34702
引	-9.34707
漁獲	-9.34713
意見交換	-9.34713
将来の装備品	-9.34719
粉	-9.34722
壁	-9.34722
権利	-9.34724
移転	-9.34725
販売	-9.34726
延	-9.34728
にとって	-9.34728
棟	-9.34742
IPCC	-9.34746
受信	-9.34747
配分	-9.34751
部材	-9.34756
自ら	-9.34758
政策の立案	-9.34793
高齢化	-9.34805
技術開発を行う	-9.34829
地点	-9.3484
と連携して	-9.34843
に寄与することを目的とする	-9.349
主な	-9.34918
安全確保	-9.3493
地球温暖化対策	-9.34994
の実現に向けて	-9.3508
の早期	-9.35217
長期的	-9.35396
迅速	-9.35424
基本調査	-9.35503
提供し	-9.35592
等の開発	-9.35693
法に基づく	-9.35879
実証試験	-9.35883
が高い	-9.35969
を導入する	-9.35998
の変化	-9.36069
の見直し	-9.36128
ことを目的として	-9.36131
向上に資する	-9.36227
とその	-9.36291
11	-9.36316
るため	-9.364
普及展開	-9.36401
国立大学法人等	-9.36409
多くの	-9.36435
調査等を実施する	-9.36444
を調査	-9.36489
等の実施	-9.36665
を評価する	-9.36737
公表を行う	-9.36749
諸外国の	-9.36796
データの収集	-9.37184
地域住民	-9.37271
東アジア	-9.37287
等を支援	-9.37322
の分析	-9.37346
が必要である	-9.3744
の在り方	-9.37457
諸国	-9.37517
材料の	-9.37702
管理者	-9.38068
手法の開発	-9.38258
先進	-9.38307
の品質	-9.385
次の	-9.38568
の中で	-9.38682
されるよう	-9.38713
人の	-9.38865
有効活用	-9.39122
技能	-9.39165
に対応する	-9.39191
させるため	-9.39193
っている	-9.39274
周知	-9.39295
安定的	-9.39326
の解明	-9.39409
研究センター	-9.3945
設	-9.39468
事業者が	-9.39569
薬剤耐性	-9.39705
の下	-9.3972
格	-9.39724
一体	-9.39792
転換	-9.39793
データを収集	-9.39842
守	-9.3986
遠隔	-9.39876
安全性向上	-9.39879
基幹	-9.39886
造	-9.39896
主導	-9.3991
導	-9.39923
底	-9.39931
ダ	-9.39934
ごみ	-9.39937
客観的	-9.3994
団	-9.3994
ハ	-9.3994
c	-9.39943
厳	-9.39949
手続	-9.39949
STI	-9.39953
省力化	-9.39953
に把握し	-9.39956
地籍調査	-9.39963
配布	-9.39964
照	-9.39966
研	-9.39968
設立	-9.3997
2050	-9.39972
交渉	-9.39972
復旧	-9.39975
チ	-9.39976
死亡	-9.39977
メカニズム	-9.39977
警戒	-9.39978
ボ	-9.39979
問	-9.39982
牛	-9.39983
の円滑化	-9.39986
事務局	-9.39989
稼働	-9.3999
国立感染症研究所	-9.39991
執行	-9.39992
アプローチ	-9.39994
パネル	-9.39997
方式	-9.40008
可能性がある	-9.40012
してきた	-9.40031
低下	-9.4005
EV	-9.40053
発表	-9.40056
新たに	-9.40058
研究課題	-9.40066
スマート農業	-9.4007
支援等	-9.40071
が連携して	-9.40076
的確な	-9.40086
流行	-9.40101
地質	-9.40132
難病	-9.40273
校	-9.4032
因	-9.40358
原子力規制	-9.40414
を開催する	-9.40444
医療費	-9.40444
大型	-9.4045
段階から	-9.40465
大量	-9.40518
評価委員会	-9.40665
科学的な	-9.40834
能力向上	-9.40853
化学	-9.4088
年度から平成	-9.40897
都道府県等	-9.40949
付け	-9.41199
31	-9.41314
電波の	-9.41403
集中	-9.41412
課題について	-9.41432
マッチング	-9.41486
設備の整備	-9.4156
知見を	-9.41704
いる	-9.41731
仕組み	-9.41752
効果的に	-9.41791
の設計	-9.42236
でき	-9.4224
中国	-9.42303
的確	-9.42405
活性化	-9.42874
以上の	-9.43013
情報を収集	-9.43225
成果の	-9.43355
の基盤となる	-9.43448
一定の	-9.43623
取り	-9.43672
反	-9.43697
が期待される	-9.43818
を把握するため	-9.43891
させること	-9.43918
を踏まえて	-9.43921
の製造	-9.44028
競争力	-9.44095
建築物の	-9.44247
全体で	-9.44928
総合的	-9.44991
地図	-9.45038
に要する経費	-9.45046
低コスト	-9.45064
普及を図る	-9.45185
有害	-9.45199
を実現	-9.45299
を対象とし	-9.45325
連	-9.45364
ことを目的とした	-9.45401
となった	-9.45453
精	-9.45463
件	-9.45471
解	-9.45472
財	-9.45476
r	-9.45477
に基づいて	-9.45481
限	-9.45488
被災地	-9.45502
与	-9.45505
ネ	-9.45506
期待	-9.45515
上限	-9.45516
世代	-9.45516
健診	-9.45516
像	-9.45522
サポート	-9.45525
をもとに	-9.45526
探査	-9.45527
オリンピック	-9.45529
ピ	-9.45531
画像	-9.45531
ぐ	-9.45532
昭和	-9.45532
園	-9.45532
死	-9.45532
を持つ	-9.45533
初期	-9.45535
探知	-9.45536
厚生労働省に提出される	-9.45539
+	-9.4554
放射能	-9.45541
蔵	-9.45541
ソ	-9.45545
音	-9.45545
国立研究開発法人情報通信研究機構	-9.45546
群	-9.45549
コースト構想	-9.45549
露	-9.45549
細胞	-9.4555
関係府省	-9.45553
貯留	-9.45554
が課題となっている	-9.45556
届出	-9.45559
を通して	-9.45568
移行	-9.4557
会員	-9.45572
若手研究者	-9.45593
指数	-9.45601
コン	-9.45617
定着	-9.45617
量子	-9.45635
情報交換	-9.45664
本部	-9.45752
適正化	-9.45825
年金	-9.45909
企業の	-9.45937
最新の知見	-9.45976
我が国企業	-9.4614
事業開始	-9.46146
の海外展開	-9.46308
等の取組	-9.46391
の検討を行う	-9.46394
着実に	-9.46622
の実現に向けた	-9.47011
地方公共団体が	-9.47074
農業者	-9.47129
を一体的に	-9.47149
が不可欠である	-9.47544
レベルで	-9.47724
できるようにする	-9.47789
を整備し	-9.47807
を確立し	-9.4784
こととしている	-9.47976
の設置	-9.48097
研究開発を行う	-9.48099
支援や	-9.48145
技術について	-9.48315
バ	-9.48335
東	-9.48405
とした	-9.4859
機能強化	-9.48622
を策定する	-9.48655
選定	-9.48709
産業の	-9.4894
事業者等	-9.48954
動向調査	-9.49125
が連携し	-9.4923
を目的として	-9.49378
情報提供を行う	-9.49397
について検討する	-9.49473
の推進を図る	-9.49483
分野において	-9.49535
取組を	-9.49604
検討会	-9.4969
PA	-9.497
取組を推進する	-9.49954
それらの	-9.49974
医学	-9.5042
を収集	-9.50471
調査を行い	-9.50666
毎年	-9.50674
構成	-9.50887
分散	-9.51093
年までに	-9.51159
測	-9.51235
指	-9.51255
終了	-9.51274
観点	-9.51287
陸	-9.51305
漁業者	-9.51313
有効な	-9.5132
地域において	-9.51325
となり	-9.51333
速	-9.51356
総	-9.5136
野生鳥獣	-9.51363
の基礎資料を得ることを目的とする	-9.51369
離	-9.51374
ップ	-9.51376
足	-9.51381
介護保険	-9.51392
台	-9.51394
運航	-9.51394
サイクル	-9.51397
最終	-9.51403
児童生徒	-9.51404
鳥獣	-9.51404
熱中症	-9.51405
v	-9.51408
ドローン	-9.5141
栽培	-9.51412
アクセス	-9.51412
競技	-9.51414
WHO	-9.51414
に把握する	-9.51417
版	-9.51417
計算	-9.51423
太陽光	-9.51424
ダム	-9.51425
新型コロナウイルス感染症	-9.51426
地盤	-9.51426
サイエンス	-9.51428
菌	-9.51428
異なる	-9.51429
漁場	-9.51433
幅広く	-9.51438
政策の企画立案	-9.5144
をはじめとした	-9.5144
結核	-9.51441
人材を育成する	-9.51445
すべく	-9.51447
造成	-9.51447
知的財産権	-9.51463
手続き	-9.51465
各府省	-9.51467
積極的な	-9.51476
2016	-9.51477
廃棄物処理	-9.51479
分類	-9.51496
を利用した	-9.51502
を見据えた	-9.51508
工業	-9.51509
PC	-9.51512
人々	-9.51517
地形	-9.51519
定量的	-9.51522
の現場	-9.51523
国民生活の	-9.51524
地元	-9.51524
専門的	-9.51524
への転換	-9.51577
持続的な	-9.51593
に不可欠な	-9.51603
緊急時	-9.51669
実践的な	-9.51669
国産	-9.51725
集約化	-9.51725
排出量	-9.51923
厚生労働省において	-9.51972
環境を整備する	-9.51994
ことを通じて	-9.52023
アジア太平洋地域	-9.5206
経済活動	-9.52065
リスク管理	-9.52088
発生する	-9.52192
研究機関等	-9.52223
、4、	-9.52351
む	-9.52421
システム設計	-9.5247
競争力強化	-9.52567
それぞれの	-9.52702
に関する情報	-9.52729
安全の確保	-9.52767
体系的	-9.52781
を確保し	-9.5284
技術等を	-9.52902
計画等の	-9.52944
システムの整備	-9.52987
品質管理	-9.53031
ことによって	-9.53065
イノベーション創出	-9.53211
プ	-9.53306
の一部	-9.53393
我が国は	-9.53427
生産性の向上	-9.53638
する中	-9.53775
をより	-9.54081
を図ることにより	-9.54177
分析を行う	-9.544
産学官	-9.54459
ンド	-9.54558
産学	-9.54881
の事業	-9.54883
アジア諸国	-9.54983
を進めるため	-9.55081
要件	-9.55266
に取り組み	-9.55392
に反映	-9.55411
地下	-9.55436
を実現し	-9.55586
。1、	-9.55606
の安定供給	-9.55658
減少	-9.55888
ズ	-9.55948
体系	-9.56294
シンポジウム	-9.56336
調査の実施	-9.56573
こと等により	-9.56636
際に	-9.56722
技術を開発する	-9.56897
とも	-9.57146
放射性物質の	-9.57168
▁平成	-9.57263
土地	-9.57297
にあたって	-9.5732
産業財産権	-9.57331
低炭素	-9.5737
一方	-9.57497
閣議決定	-9.5756
整備する	-9.5756
今	-9.57612
を与える	-9.5762
セ	-9.5762
コード	-9.57623
業界	-9.57625
社	-9.57629
枠	-9.57633
Construction	-9.57639
ニ	-9.5764
融	-9.57641
潜水艦	-9.57648
級	-9.5765
北海道	-9.57651
返	-9.57651
人口減少	-9.57651
青	-9.57654
さらなる	-9.57654
望	-9.5766
NEA	-9.57661
攻撃	-9.57661
を行った	-9.57664
測位	-9.57666
軟	-9.57667
の実態把握	-9.57667
コミュニティ	-9.57668
ポ	-9.57668
中心	-9.57669
代表	-9.5767
に起因する	-9.5767
に即した	-9.5767
水俣病	-9.57671
肝	-9.57671
賞	-9.57671
運営費交付金	-9.57671
弱	-9.57673
治験	-9.57673
技術革新	-9.57675
が進む	-9.57675
労働組合	-9.57675
ASEAN	-9.57676
が保有する	-9.57677
寄	-9.57678
for	-9.57679
できない	-9.57679
伝送	-9.57681
制約	-9.57682
激	-9.57683
特許庁	-9.57685
投入	-9.57688
を取り巻く	-9.5769
試行	-9.57692
学び	-9.57693
除雪	-9.57697
高精度	-9.57706
外部有識者	-9.57708
動植物	-9.57708
保守	-9.57709
DB	-9.57713
海底	-9.57722
有効利用	-9.57723
コスト低減	-9.57746
立地	-9.57771
と連携し	-9.57784
条第	-9.57797
計量	-9.57823
項	-9.57849
低コスト化	-9.57894
世界的に	-9.57899
運営する	-9.57924
一方で	-9.57927
利用できる	-9.57931
を設定し	-9.57966
災害対応	-9.57979
本事業を実施する	-9.58039
の設定	-9.58102
国際展開	-9.58107
各都道府県	-9.58163
ション	-9.58225
データ収集	-9.58246
化学物質管理	-9.58319
政府間	-9.58344
環境変化	-9.58421
。3。	-9.58492
原子力分野の	-9.5862
食品安全	-9.5873
事業を実施	-9.58818
中小企業の	-9.58866
者が	-9.58867
デジタル化	-9.592
の基準	-9.59236
体制を構築	-9.59312
等に基づき	-9.59407
研究を行う	-9.59414
技術を確立する	-9.59602
つつある	-9.59724
を構築	-9.59773
研究者の	-9.59802
介護サービス	-9.5998
普及促進	-9.60075
等を通じ	-9.60084
積極的に	-9.60154
災害時の	-9.60279
途上国における	-9.60381
の予防	-9.60401
研究開発を推進する	-9.60422
等に対し	-9.60434
協議会	-9.60477
養殖業	-9.60497
受け	-9.60527
最先端の	-9.60593
成分	-9.60699
に対する補助	-9.61183
研究成果の	-9.61183
企業等の	-9.61242
大企業	-9.6127
ことを踏まえ	-9.61284
二	-9.61285
体制を構築する	-9.61365
等を図る	-9.61408
住民	-9.61467
の特性	-9.61561
の上	-9.61692
使用する	-9.61797
国として	-9.62016
を最大限	-9.62183
の一層の	-9.62267
を検討し	-9.62292
べく	-9.62452
分析等を行う	-9.6248
界	-9.625
疫学	-9.62705
集中的	-9.62798
それぞれ	-9.62912
展開する	-9.63025
するためには	-9.63135
その成果	-9.63241
向上を図る	-9.63352
推進するため	-9.6347
▁第	-9.63511
常	-9.63557
同時	-9.63809
となって	-9.64128
共	-9.64142
素	-9.64209
従事者	-9.64217
の一つ	-9.64239
を含め	-9.64241
達	-9.64254
手順	-9.64257
メーカー	-9.64258
容易に	-9.64278
一貫	-9.64286
子育て	-9.64286
固	-9.64296
商標	-9.64304
抗	-9.64309
ワークショップ	-9.64312
優位性	-9.64315
ローカル	-9.64318
認識	-9.64323
だけでなく	-9.64324
プラン	-9.64326
覚	-9.64327
k	-9.64328
農産物	-9.64328
鉱物資源	-9.64328
極	-9.64329
沿岸	-9.6433
ゲノム	-9.64331
混	-9.64336
豊かな	-9.64336
h	-9.64337
東日本大震災	-9.64338
に基づいた	-9.64338
活躍	-9.64338
雪	-9.64338
f	-9.64339
営	-9.64339
も踏まえ	-9.64339
に応える	-9.6434
リソース	-9.64341
好	-9.64341
破壊	-9.64342
バリアフリー	-9.64342
自由	-9.64342
緩和	-9.64343
存在	-9.64343
全ての	-9.64343
原則	-9.64344
一連の	-9.64345
博物館	-9.64346
組み合わせ	-9.64347
ライフ	-9.64347
白書	-9.64347
モビリティ	-9.64348
優良	-9.6435
エイズ	-9.6435
デバイス	-9.64353
給付	-9.64353
MaaS	-9.64353
一括	-9.64354
燃費	-9.64355
ライフスタイル	-9.64356
排出抑制	-9.64368
農林水産省	-9.64371
部隊	-9.64371
健康増進	-9.64378
er	-9.64378
数値	-9.64386
世界気象	-9.6439
公正	-9.64397
女性	-9.64404
効率的かつ	-9.64442
医療従事者	-9.64447
水力発電	-9.64499
高性能	-9.64527
地域活性化	-9.64542
大学等の	-9.64545
に資すること	-9.64568
医療の提供	-9.64571
廃炉	-9.64617
公的	-9.64648
継続的な	-9.64651
再生医療	-9.64684
大規模な	-9.64705
専門的な	-9.64745
本事業により	-9.64853
開発された	-9.64935
17	-9.64949
新たな技術	-9.65089
ように	-9.65228
に係る調査	-9.65308
感染症対策	-9.6537
情報処理	-9.65423
調査対象	-9.65757
の取組を	-9.65802
能力の向上	-9.65802
水産業	-9.65987
を創出し	-9.66209
を防止するため	-9.66274
一定	-9.6631
衛生行政	-9.66383
を行うため	-9.66446
調査や	-9.66594
関連技術	-9.66648
取組等を支援	-9.66661
行われている	-9.66791
ことを	-9.66953
。2、	-9.67101
技術及び	-9.67176
を実施することで	-9.67296
活用できる	-9.67333
することが	-9.67591
るよう	-9.67799
技術分野	-9.67827
1/2、	-9.67992
の養成	-9.68002
考	-9.68217
森林の	-9.68288
を確認する	-9.68311
手法の	-9.68396
研究費	-9.68428
農林水産	-9.68519
手法を	-9.6869
た上で	-9.68807
やその	-9.68849
最大	-9.68898
を図ることで	-9.68905
安全性評価	-9.68999
への取組	-9.69062
技術の研究開発	-9.69116
AP	-9.69133
るとともに	-9.69151
の集積	-9.69157
されていない	-9.69176
5%	-9.69216
で得られた	-9.69216
調査員	-9.69282
これまでの	-9.69352
中に	-9.69421
等の取組を支援	-9.69656
研究を実施	-9.69673
製造業	-9.70109
情報等を	-9.70329
を支援するため	-9.70334
技術動向	-9.70354
の立案	-9.70372
っ	-9.70564
2。5	-9.70913
実施している	-9.7092
会の開催	-9.70956
の省エネ	-9.71087
円滑	-9.71187
人の健康	-9.71211
の向上を図る	-9.71219
の保護	-9.71336
を見据え	-9.71342
値	-9.71368
競争	-9.71372
審議	-9.71388
積	-9.71389
が有する	-9.71413
平	-9.71424
防疫	-9.71436
効	-9.71436
妥当性	-9.71444
初	-9.71446
500	-9.71447
必	-9.71449
メンテナンス	-9.71456
優先	-9.71456
労	-9.71457
リアルタイム	-9.71458
石炭	-9.7146
ZEB	-9.71461
求	-9.71462
密	-9.71464
軽量化	-9.71464
診	-9.71465
鉱	-9.71465
独	-9.71466
パートナーシップ	-9.71467
w	-9.71467
案件	-9.71468
脳	-9.71468
調	-9.71469
所管	-9.71469
太平洋	-9.71471
を中心とした	-9.71471
履歴	-9.71471
コンテンツ	-9.71472
確実に	-9.71474
JCM	-9.71475
覧	-9.71477
が懸念される	-9.71478
販路開拓	-9.71479
残留	-9.7148
商品	-9.71482
配置	-9.71482
克服	-9.71482
切	-9.71486
半	-9.71487
我が国唯一の	-9.71487
艦	-9.71487
多様化	-9.71487
称	-9.71488
私立学校	-9.71489
養成	-9.71489
ソフト	-9.7149
隔	-9.71491
電動化	-9.71492
樹	-9.71492
集中豪雨	-9.71492
複雑化	-9.71493
放射性廃棄物	-9.71493
虫	-9.71494
農林水産大臣	-9.71495
エンジン	-9.71495
ユネスコ	-9.71496
等の検討	-9.71496
サミット	-9.71496
実際の	-9.71496
が見込まれる	-9.71497
発射	-9.71501
配信	-9.71502
CCS	-9.71503
記入	-9.71509
地すべり	-9.7151
算定	-9.71527
先進事例	-9.7153
新興国	-9.71532
建設現場	-9.71559
このような	-9.71565
中小	-9.71568
排水	-9.71571
用いる	-9.71585
陸上	-9.71594
製造プロセス	-9.71603
保健所	-9.71635
工学	-9.71649
事務所	-9.7167
詳細な	-9.71684
場所	-9.71736
補助事業	-9.71741
過労死等	-9.71761
水準の	-9.71788
将来的な	-9.71791
からなる	-9.71827
28~	-9.71888
計画的	-9.71893
最	-9.71899
医療関係者	-9.71917
取り組み	-9.71986
形で	-9.72108
を促	-9.72112
国内で	-9.7215
常に	-9.72247
利用促進	-9.72281
行動変容	-9.72292
技術的知見を取得	-9.72405
することによって	-9.7245
実証実験	-9.72484
を踏まえつつ	-9.72591
技	-9.72592
経済性	-9.72607
出力	-9.72919
民間事業者	-9.73012
主に	-9.73185
ていない	-9.7337
オープンイノベーション	-9.73403
実施し	-9.73443
の取り組み	-9.73612
現地調査	-9.73615
の必要性	-9.73914
のデータ	-9.74039
が困難な	-9.74127
検証する	-9.74157
改修等	-9.74333
厚生労働行政	-9.74379
調査事業	-9.7439
へと	-9.74396
情報の提供	-9.74513
に関する情報を	-9.7461
の試作	-9.7469
の有する	-9.74722
状況を把握	-9.74731
等を用いた	-9.74823
CA	-9.74844
円滑な	-9.7489
実現する	-9.74917
職員等	-9.7493
課題を解決するため	-9.75256
力強化	-9.75313
のために必要な	-9.7546
地球観測	-9.75501
研究を実施し	-9.75551
説明	-9.75774
の達成	-9.76011
利便性	-9.76091
行っている	-9.76121
公募し	-9.76339
技術等の	-9.76404
の標準化	-9.7649
分野での	-9.76501
にわたる	-9.7657
あらゆる	-9.76728
研究を推進する	-9.76961
に係る技術開発	-9.76985
土砂	-9.77036
ものの	-9.77052
科学技術イノベーション	-9.77653
の内容	-9.77755
得られた成果	-9.78432
を効果的に	-9.78466
だ	-9.78493
議	-9.78512
協調	-9.78583
促進事業	-9.78678
基	-9.78759
への支援	-9.78794
セキュリティ対策	-9.7899
サイバー	-9.78999
→	-9.79048
浸	-9.79053
聴	-9.79081
付加価値	-9.79083
X	-9.79112
果	-9.79116
権	-9.79131
CNF	-9.7914
p	-9.79141
区域	-9.79144
の方向性	-9.79145
微	-9.79145
軽	-9.79148
あわせて	-9.79149
擁壁	-9.79149
則	-9.79151
減災対策	-9.79152
復	-9.79154
直面する	-9.79157
買	-9.79158
を始めとする	-9.7916
換	-9.7916
わが国の	-9.7916
ステークホルダー	-9.7916
消防	-9.79162
従	-9.79162
天然ガス	-9.79163
単	-9.79163
に至る	-9.79164
言	-9.79164
雑	-9.79164
あるいは	-9.79165
標	-9.79166
カドミウム	-9.79166
空中写真	-9.79166
労働安全衛生	-9.79167
追	-9.79167
訳	-9.79167
ポスト	-9.79168
正確な	-9.79168
送電	-9.79168
原子炉	-9.79169
四	-9.79169
株	-9.7917
g	-9.7917
仮	-9.79171
担当者	-9.79171
番	-9.79171
搬	-9.79172
チップ	-9.79173
個々の	-9.79173
士	-9.79173
許可	-9.79173
教育課程	-9.79174
様式	-9.79175
著しい	-9.79176
欧米	-9.79177
遺伝子	-9.79177
に充てる	-9.79178
貨物	-9.79178
GOSAT	-9.79181
任	-9.79182
ナノ	-9.79183
年法律第	-9.79185
市区町村	-9.79186
手段	-9.79186
アプリケーション	-9.79188
資料を得る	-9.79188
コンテナ	-9.79189
暑	-9.79191
実施及び同業務の推進に資する	-9.79194
自動運転	-9.79194
技術者の研修	-9.79196
指示	-9.79196
幼	-9.79196
乳	-9.79197
漁港	-9.79199
通知	-9.79199
ハイ	-9.79204
抜本的な	-9.79207
とも連携し	-9.79211
補修	-9.79216
加入	-9.79222
人口問題	-9.79228
利便性向上	-9.79243
月閣議決定	-9.79245
作物	-9.79255
所在	-9.7927
部分	-9.79273
核燃料	-9.79275
HP	-9.79294
オープンデータ	-9.79298
時期	-9.79301
場合には	-9.79306
MS	-9.79311
を図りつつ	-9.79339
機材	-9.79351
PS	-9.79359
に供する	-9.79368
実用	-9.79403
国際標準	-9.79403
先進国	-9.79421
機関として	-9.79423
状況の把握	-9.79446
基本的な	-9.79457
実地	-9.79484
委託費	-9.79489
実行	-9.7949
コンピュータ	-9.79497
じ	-9.7952
補助対象	-9.79534
診断法	-9.79738
原子力発電所	-9.79749
省エネルギー化	-9.79798
防災対策	-9.79976
16	-9.79981
ベンチャー企業	-9.80193
更新を行う	-9.80293
を形成し	-9.80305
毎に	-9.80306
大気汚染	-9.80746
RC	-9.80847
疫学調査	-9.81119
を明らかにし	-9.81199
を迅速に	-9.81288
▁SDGs	-9.81341
効果検証	-9.81366
実証研究	-9.81386
いて	-9.81399
者に対して	-9.81491
を考慮した	-9.81546
IC	-9.81576
を実現するための	-9.81717
評価結果	-9.81727
の迅速化	-9.81744
政府の	-9.81847
間の連携	-9.81913
としている	-9.8192
技術協力	-9.81942
感染症の発生	-9.82057
海外における	-9.82064
と連携	-9.82084
医療機関等	-9.82201
さらには	-9.82273
重点的に	-9.82537
ことが必要	-9.82584
遺伝資源の	-9.82602
支援を実施	-9.82741
適切に	-9.82826
対策を推進する	-9.82843
ライン	-9.82866
の関係	-9.82869
迅速に	-9.8298
畜産	-9.82988
収集し	-9.83008
全国各地	-9.8304
を有し	-9.83268
及び運用	-9.83326
安定供給	-9.8335
を未然に防止する	-9.83428
で実施する	-9.83515
能力を	-9.83536
を加速する	-9.83608
状況等を	-9.83696
次元	-9.83738
計画の策定	-9.83785
適合性	-9.83857
有害性	-9.84096
等に基づく	-9.84119
国際競争力の強化	-9.8429
進める	-9.84543
ことが重要である	-9.84689
困難な	-9.84708
施設について	-9.84848
多く	-9.84894
する必要がある	-9.84925
総合的に	-9.84994
ないよう	-9.85034
のマッチング	-9.85121
十分に	-9.85212
排出量の	-9.85464
2/3。	-9.85532
モデル事業	-9.85664
。3、	-9.85894
しながら	-9.86077
が発生した	-9.86217
者に対する	-9.86422
寄与	-9.86442
を策定し	-9.86446
都道府県が	-9.86536
民間の	-9.8657
単位	-9.86632
海外展開	-9.86704
の主要	-9.86947
技術的課題	-9.87164
の確保を図る	-9.87268
排	-9.87307
要介護認定	-9.8734
記	-9.87358
ベース	-9.87371
航	-9.8738
横断的	-9.87392
アジア地域	-9.87421
があり	-9.87425
自動	-9.87434
飛	-9.8744
難	-9.8744
射	-9.87445
護	-9.87464
天然	-9.87466
漁船	-9.87471
次期	-9.87471
WMO	-9.87473
健	-9.87474
領	-9.87475
可	-9.87479
散	-9.87481
注	-9.87481
様	-9.87482
HIV	-9.87482
&	-9.87485
まちづくり	-9.87486
を抽出し	-9.87486
天	-9.87491
審判	-9.87493
掘	-9.87493
サーベイランス	-9.87493
包括的	-9.87495
ロシア	-9.87496
少子高齢化	-9.87498
人口動態	-9.87499
情勢	-9.875
小売	-9.875
フロン	-9.87502
極めて	-9.87502
記録	-9.87502
平和	-9.87502
橋	-9.87503
ホ	-9.87504
伝達	-9.87504
に寄与し	-9.87504
日本医療研究開発機構	-9.87506
考え方	-9.87507
財務	-9.87507
鉄	-9.87507
カーボンリサイクル	-9.8751
立場	-9.8751
であって	-9.8751
磁	-9.87511
競争的資金	-9.87512
ベ	-9.87513
動物用医薬品	-9.87513
本事業の最終目的は	-9.87514
実効性	-9.87515
体験	-9.87515
ハード	-9.87515
世紀	-9.87516
が共同で	-9.87516
分野の研究開発及びその環境の整備	-9.87517
庫	-9.87519
毎月勤労統計	-9.87522
同センターの業務	-9.87524
特別措置法	-9.87524
北	-9.87527
旧	-9.87529
理論	-9.87532
幼児教育	-9.87534
財源	-9.87535
行わせ	-9.87535
東京電力福島第一原子力発電所	-9.87536
送信	-9.87541
基盤的研究	-9.87544
制定	-9.87545
を円滑に	-9.87546
総会	-9.87548
らず	-9.87549
教材	-9.87552
先端的	-9.87554
al	-9.87554
負担軽減	-9.87556
周辺海域	-9.87568
接種	-9.87569
研究及び技術の開発	-9.87576
IIP	-9.87583
民生	-9.87587
修学	-9.8759
生育	-9.87593
交付率	-9.87593
電源	-9.87595
国際比較	-9.87598
有用な	-9.87598
浸水	-9.87602
先導的な	-9.87605
部局	-9.87607
風力	-9.87611
受入	-9.87614
ガイドラインの作成	-9.87615
災害の防止	-9.87635
自然災害	-9.87639
有機	-9.87675
経済成長	-9.87691
を受けた	-9.87709
を目指した	-9.87709
自動化	-9.87715
年度以降	-9.87749
計画策定	-9.87783
スタートアップに対する	-9.87788
医療保険	-9.8779
環境を整備し	-9.87793
介護予防	-9.878
その結果を公表	-9.87813
が一体とな	-9.87818
標準電波	-9.87828
これらの業務に	-9.87853
小規模事業者	-9.87882
国立大学	-9.87885
ルー	-9.87907
にあたっては	-9.87968
数学	-9.88013
異分野	-9.8804
を作成	-9.88085
地域保健	-9.88086
治療法	-9.88092
または	-9.88112
食品の安全性	-9.8814
医療機器開発	-9.88251
動向や	-9.88267
高機能	-9.88268
--	-9.88297
提供を行う	-9.88366
我が国の科学技術	-9.88397
人的	-9.88427
基盤となる	-9.88566
を進めるとともに	-9.88697
出生	-9.88753
を支援します	-9.88887
基準の策定	-9.88949
を実施するために必要な	-9.89031
研究成果を	-9.89036
、10/10、	-9.89106
研究機関における	-9.89358
10/10、	-9.89474
信頼性向上	-9.89479
共通の	-9.89521
を受ける	-9.89559
事業場	-9.89569
の開発及び	-9.89588
▁独立行政法人	-9.89947
等を行うことで	-9.89955
農業者等	-9.90009
に貢献するため	-9.9004
経済社会	-9.90257
水産物の	-9.90316
施設等の整備	-9.90563
ところである	-9.90599
することを目指す	-9.90755
していくための	-9.90931
技術力	-9.90932
現場で	-9.91159
の監視	-9.91298
の調査分析	-9.91477
関する	-9.91602
のほか	-9.91655
方法等	-9.91981
情報を提供する	-9.92058
環境の変化	-9.92139
管理運営	-9.92339
を的確に	-9.92474
関連の	-9.92531
検討等を行う	-9.92659
継続的	-9.92944
に対応できる	-9.93009
本事業において	-9.93009
評価に必要な	-9.93013
の環境整備	-9.93373
最先端	-9.93442
の見える化	-9.93452
水産物	-9.93698
ることにより	-9.93838
を図るためには	-9.93899
取組み	-9.94019
防止対策	-9.941
位置情報	-9.94134
災害時	-9.94203
が生じ	-9.94482
屋	-9.94541
者に対し	-9.94589
の対象	-9.94896
ヘルスケア	-9.94915
研究の推進	-9.94923
共通基盤	-9.95082
ことができるよう	-9.95114
事項について	-9.9524
システムの導入	-9.95364
月の	-9.95523
が必要な	-9.95609
実証を行い	-9.95689
イノベーション拠点	-9.95757
技術の高度化	-9.95762
の推進や	-9.95893
の機能	-9.95979
IS	-9.95989
比較	-9.96041
整理し	-9.96075
よ	-9.96159
の補助を行う	-9.96177
の原因	-9.96182
に関する情報の収集	-9.96198
交付金	-9.96198
福島第一原子力発電所の廃炉	-9.96256
技術を活用した	-9.96275
していくために	-9.96277
ることで	-9.96282
最適	-9.96297
諸問題	-9.96367
算	-9.964
データベースの構築	-9.96428
短	-9.9644
国立	-9.96447
政	-9.96461
移	-9.96468
図る	-9.96483
認	-9.96499
具体	-9.96525
アドバイス	-9.96526
d	-9.96527
客	-9.96531
ガ	-9.96533
署	-9.96533
油	-9.96536
置	-9.96538
幅	-9.96548
編	-9.96549
救	-9.96549
境界	-9.96553
師	-9.96554
ケ	-9.96555
相	-9.96555
炭素	-9.96566
豪雨	-9.96567
具	-9.96569
持	-9.9657
税	-9.9657
が抱える	-9.96572
獣	-9.96573
DNA	-9.96575
を始めとした	-9.96575
政策の企画	-9.96576
ば	-9.96577
急速な	-9.9658
モ	-9.96581
剤	-9.96581
課	-9.96582
JAS	-9.96582
母集団	-9.96584
便	-9.96584
が懸念されている	-9.96585
に携わる	-9.96585
進められている	-9.96586
模倣品	-9.96586
史	-9.96587
隊	-9.96587
張	-9.96589
仕	-9.9659
明確化	-9.9659
厚生労働科学研究	-9.9659
旅	-9.96591
割を占める	-9.96592
多国間	-9.96592
肉	-9.96594
に際して	-9.96595
ばく露	-9.96597
異常	-9.96597
可視化	-9.96598
景	-9.96598
正確に	-9.96598
レセプト	-9.96598
招へい	-9.96598
弾	-9.96598
帰	-9.96599
負	-9.96599
RED	-9.96599
フェーズ	-9.96599
の有無	-9.966
ぶ	-9.966
ナッジ	-9.966
公衆衛生	-9.96601
が想定される	-9.96601
の規定に基づき	-9.96601
100%	-9.96602
ポータルサイト	-9.96602
為	-9.96602
国際原子力機関	-9.96603
内閣府	-9.96603
国費率	-9.96604
が高く	-9.96605
ヒアリング	-9.96605
電子投票	-9.96605
となっており	-9.96606
絶	-9.96607
庁舎	-9.96607
次産業革命	-9.96608
現行の	-9.96608
にかかる経費の一部	-9.96609
電源立地対策	-9.96609
は以下のとおり	-9.96611
ITER	-9.96611
給与	-9.96612
が多い	-9.96613
地方創生	-9.96613
監査	-9.96614
地熱発電	-9.96615
後押しする	-9.96619
立ち	-9.9662
活力	-9.9662
ね	-9.9662
浮体式洋上風力発電	-9.9662
副反応	-9.96622
核不拡散	-9.96623
審議会	-9.96624
薬剤師	-9.96625
海岸	-9.96628
大学院	-9.96628
推定	-9.96634
外交	-9.96635
家庭部門	-9.96636
気象庁	-9.96637
ストック	-9.96638
の電子化	-9.96641
劣化	-9.96643
先進的	-9.96644
ビル	-9.96652
されてきた	-9.96656
中長期的な	-9.96658
新築	-9.96659
航行	-9.96672
育種	-9.96673
魚種	-9.96679
の精度向上	-9.96681
エネルギー消費量	-9.96685
ic	-9.96689
海洋生物	-9.96692
量子科学技術	-9.96703
GIS	-9.96704
介入	-9.96706
年代	-9.96708
野生	-9.96714
を定め	-9.9674
改修工事	-9.96741
を実現すること	-9.96745
人員	-9.96771
に利用される	-9.96772
削減対策	-9.96786
都市部	-9.96787
特許審査	-9.96805
健康づくり	-9.96806
FS	-9.9681
学会	-9.96829
政策提言	-9.9683
生成	-9.96832
施行状況	-9.96834
全国展開	-9.96856
労働行政	-9.96862
深刻な	-9.96863
を活用しつつ	-9.96882
GI	-9.96916
産学官連携	-9.96947
レジリエンス強化	-9.96958
ついて	-9.96985
持続可能な開発	-9.97038
年度は	-9.97081
関連情報	-9.9709
の一部を	-9.9712
材料科学技術	-9.97126
資料の作成	-9.97157
国内外における	-9.97209
新型	-9.97232
国外	-9.97233
を推進するための	-9.97248
研究開発法人	-9.97288
人間	-9.9733
を目的とし	-9.97376
技術等の開発	-9.97474
に適用	-9.97487
とは	-9.97626
を防止し	-9.97824
を図るために	-9.97857
なか	-9.97973
クロ	-9.98027
省エネ型	-9.98031
に求められる	-9.98155
実証を通じて	-9.9828
年度までに	-9.98311
機能性	-9.98336
の下に	-9.98377
に加えて	-9.98396
評価を行う	-9.98615
適正に	-9.98647
体制を構築し	-9.98808
様々な分野	-9.98954
支援機関	-9.99039
▁日本	-9.99046
に係る研究	-9.99136
土砂災害	-9.99203
の取得	-9.99232
産学官の	-9.99263
整備し	-9.993
32	-9.99672
策定した	-9.99684
の確保及び	-9.99787
の選定	-9.99835
が行われ	-9.99864
薬剤耐性菌	-9.99895
年の	-9.99919
の調査研究	-9.99924
を支援することで	-10.0004
を取り	-10.0007
水中	-10.002
を可能とするため	-10.0034
等に取り組む	-10.0035
農林水産分野	-10.0037
していくこと	-10.0046
我が国企業の	-10.0091
体制構築	-10.0098
基盤を構築	-10.0118
ロボット技術	-10.0132
バイ	-10.0143
ことを目的に	-10.0144
を目的に	-10.0146
手法を開発する	-10.0162
感染症に関する	-10.0199
ンス	-10.0226
ガイドライン等	-10.0237
生産者	-10.0238
を進めている	-10.0268
連携による	-10.0268
に活用し	-10.0292
内容を	-10.0294
の技術的な	-10.0302
の拡充	-10.0302
▁S	-10.0314
以外	-10.0316
サービスの提供	-10.0331
、10/10	-10.0335
専門性	-10.0347
時に	-10.0354
について検討を行う	-10.0356
オープン	-10.0378
進めるため	-10.0382
法に基づき	-10.0405
を強化し	-10.0428
なる	-10.044
国際基準	-10.0445
ッ	-10.0489
提供することで	-10.0496
施策を推進する	-10.0498
を統合し	-10.0521
ロー	-10.0535
モニタリング調査	-10.0538
医療機器等の	-10.0538
の活用により	-10.0554
の共同利用	-10.0556
を講じる	-10.0567
医療機器産業	-10.0571
構築事業	-10.0576
を収集し	-10.0578
排出量を	-10.0587
行うこと	-10.0591
異	-10.0594
に要する経費に対して補助を行	-10.0616
介護報酬改定	-10.0623
廃止措置	-10.0628
建	-10.0641
係	-10.0645
以	-10.0647
を訪問	-10.0648
潮	-10.0651
末	-10.0651
合わせ	-10.0651
消	-10.0652
拠出するもの	-10.0653
火	-10.0653
価	-10.0653
優	-10.0654
商	-10.0654
充	-10.0654
教科書	-10.0655
監	-10.0655
コミュニケーション	-10.0655
の大幅な	-10.0656
シナリオ	-10.0656
鳥インフルエンザ	-10.0656
適合	-10.0656
にわたり	-10.0656
村	-10.0657
同法	-10.0657
GEO	-10.0657
豚	-10.0657
専	-10.0657
多様性	-10.0657
認可	-10.0657
健全な	-10.0658
急速に	-10.0658
管制	-10.0658
イタイイタイ病	-10.0658
芸	-10.0658
コロナ	-10.0658
細部設計	-10.0658
館	-10.0658
語	-10.0658
サンゴ礁	-10.0658
木造	-10.0658
Q	-10.0658
365	-10.0658
に適した	-10.0658
被ばく	-10.0658
保障措置	-10.0658
有望な	-10.0658
コベネフィット	-10.0659
宿	-10.0659
に沿った	-10.0659
リモートセンシング	-10.0659
婚	-10.0659
ペ	-10.0659
ハードウェア	-10.0659
パートナー	-10.0659
都道府県労政主管課	-10.0659
クリアランス	-10.0659
縮	-10.0659
草	-10.0659
カリキュラム	-10.0659
冷	-10.0659
遺	-10.0659
干	-10.0659
遮	-10.0659
と考えられる	-10.0659
にも資する	-10.0659
を製造する	-10.066
労働力不足	-10.066
人手不足	-10.066
自衛隊	-10.066
透明性	-10.066
科学的根拠	-10.066
働き方改革	-10.066
数理科学	-10.066
水質汚濁	-10.066
論文	-10.066
インパクト	-10.066
欠	-10.066
民間競争入札	-10.066
窒素	-10.066
伸	-10.066
捉え	-10.066
掘削	-10.066
ガイ	-10.066
当省において集計	-10.066
常時監視	-10.066
リング	-10.066
を組み合わせた	-10.066
銀行	-10.066
の発掘	-10.066
火山噴火	-10.066
経済協力開発機構	-10.066
人件費	-10.066
壊	-10.066
ミッション	-10.0661
ロードマップ	-10.0661
内閣官房	-10.0661
厚生労働科学研究費補助金	-10.0661
を視野に入れ	-10.0661
一元的に	-10.0661
斜面崩壊	-10.0661
認知症	-10.0661
漏	-10.0661
ob	-10.0661
オゾン層	-10.0661
リハビリテーション	-10.0661
に委託して	-10.0661
ターミナル	-10.0661
規則	-10.0661
必要不可欠な	-10.0661
関係省庁	-10.0661
ビジョン	-10.0661
Startup	-10.0661
POPs	-10.0662
破損	-10.0662
〔	-10.0662
放射性同位元素	-10.0662
支給	-10.0662
菜	-10.0662
経済及び産業	-10.0662
充電	-10.0662
商業	-10.0662
分解	-10.0662
交通管制	-10.0662
採用	-10.0663
連結	-10.0663
化学品	-10.0663
水素ステーション	-10.0663
とされている	-10.0663
海難	-10.0663
WIPO	-10.0664
年以降の	-10.0664
パワー半導体	-10.0664
火力発電	-10.0664
規制当局	-10.0664
を担う人材の育成	-10.0664
高速炉	-10.0664
核融合	-10.0664
経路	-10.0664
ed	-10.0664
DX	-10.0665
年齢	-10.0665
地域の実情に応じた	-10.0665
教員	-10.0665
発症	-10.0665
建物	-10.0665
テスト	-10.0666
プラント	-10.0666
外来	-10.0666
補強	-10.0666
品目	-10.0667
の達成のため	-10.0667
最高	-10.0667
基準値	-10.0667
政策当局	-10.0667
自主	-10.0668
合理的	-10.0668
歯科医師	-10.0668
ガイドラインの策定	-10.0669
気候変動の影響	-10.067
核セキュリティ	-10.067
高まって	-10.067
海洋生態系	-10.0673
生活衛生	-10.0673
シカ	-10.0673
エネルギー消費	-10.0674
タン	-10.0675
動作	-10.0675
を監視	-10.0675
外国人	-10.0675
課題の採択	-10.0676
大規模地震	-10.0678
PD	-10.0681
基盤の維持	-10.0683
発生時の	-10.0683
等へ反映する	-10.0684
将来的に	-10.0684
モデルを構築	-10.0686
そして	-10.0688
に当たり	-10.0688
内部	-10.0689
安心して	-10.0694
発行	-10.0694
支出	-10.0695
先端的な	-10.0696
2012	-10.0699
課題がある	-10.0699
と連携した	-10.0702
体制の強化	-10.0702
ネットワークの構築	-10.0705
2025	-10.0711
を速やかに	-10.0715
る中	-10.0715
が大きく	-10.0717
1/	-10.0721
おける	-10.0725
再評価	-10.0725
長期的な	-10.0729
効果の検証	-10.0735
金を交付	-10.0737
の実現を目指す	-10.0738
世界的な	-10.0742
をもたらす	-10.0748
に必要な調査	-10.0754
対策を講じ	-10.0755
を委託する	-10.0765
導入拡大	-10.0776
支援センター	-10.0781
検査法	-10.0781
国から	-10.0781
に対応するための	-10.0785
関係国	-10.0785
より一層	-10.0788
科学技術政策	-10.0796
が適切に	-10.0797
行うとともに	-10.0801
の実現のため	-10.0804
災害対策	-10.0804
日本企業	-10.0808
発電設備	-10.081
を実施するための	-10.0813
持続的に	-10.0816
行政施策の	-10.0819
を形成する	-10.0822
安定的に	-10.0823
構築に向けた	-10.0823
技術を開発	-10.0837
人以上	-10.0838
等の先端技術	-10.0841
技術を有する	-10.0842
被害の軽減	-10.0856
により行う	-10.0862
高齢者が	-10.0877
を積極的に	-10.088
その結果を	-10.0887
小規模	-10.0887
こととされている	-10.0891
、2/3、1/2	-10.0895
自立的	-10.0909
を把握するための調査	-10.0917
調査等を行う	-10.0928
であるため	-10.0931
のフォローアップ	-10.094
等に関する法律	-10.0959
に関する情報を収集	-10.0975
等の把握	-10.0981
及びこれ	-10.099
きている	-10.0993
適応策	-10.0997
分析を行い	-10.0998
見える化	-10.1007
費補助金	-10.1007
との間	-10.1007
する方法	-10.1031
データ連携	-10.1041
医療現場	-10.1042
BI	-10.1042
が重要である	-10.1056
性のある	-10.1075
行われる	-10.1099
上で必要な	-10.1126
考え	-10.1139
の達成に向け	-10.1159
クラウドサービス	-10.116
きた	-10.1167
への提供	-10.1168
理解促進	-10.1184
が必要と	-10.1186
研究会	-10.1206
インド	-10.1217
ことが必要である	-10.1226
最適化	-10.1226
1/2、2/3、	-10.1236
▁20	-10.1247
重点的	-10.125
技術の確立	-10.1253
イノベーションの創出	-10.1253
遺伝資源	-10.1294
を活かした	-10.1329
研究及び開発等を	-10.1374
技術開発を実施する	-10.1378
公表し	-10.1386
持続可能	-10.1395
活用するため	-10.14
の検討を行い	-10.1414
実施され	-10.1431
迅速化	-10.1447
コー	-10.145
なっている	-10.1451
係る	-10.1477
災害の発生	-10.1478
有効	-10.152
y	-10.153
示す	-10.155
調査研究を実施する	-10.1554
不可欠である	-10.1584
実施されている	-10.1587
大会	-10.1606
のデジタル化	-10.1617
未来技術	-10.1621
サービス提供	-10.1655
行われ	-10.1657
を実施して	-10.1675
広く国民に	-10.1685
大きく	-10.1707
の改訂	-10.1707
高齢	-10.1709
した上で	-10.1733
本人	-10.1733
交換	-10.1738
知見等を踏まえ	-10.1742
を活かし	-10.1747
推進を図る	-10.1753
行うため	-10.1757
に必要な基礎資料を得る	-10.1758
証	-10.1758
雨	-10.176
酒類	-10.1763
創薬	-10.1763
若手	-10.1764
見込まれ	-10.1765
ほ	-10.1766
産地形成	-10.1766
子ども	-10.1766
由	-10.1767
石	-10.1767
非対面	-10.1767
残	-10.1767
労使関係	-10.1767
パリ協定	-10.1768
続	-10.1768
ぎ	-10.1768
貴重な	-10.1768
高等専門学校	-10.1768
国土地理院	-10.1768
の合理化	-10.1769
ウェブサイト	-10.1769
護衛艦	-10.1769
落	-10.1769
巡	-10.1769
の一環	-10.1769
砂	-10.1769
周	-10.1769
し得る	-10.1769
しやすい	-10.1769
連続	-10.1769
ing	-10.1769
相談窓口	-10.1769
に規定する	-10.1769
探鉱	-10.1769
属	-10.1769
歩	-10.1769
和	-10.1769
セクター	-10.1769
の種類	-10.177
十	-10.177
ヒ	-10.177
圏	-10.177
タイプ	-10.177
補助上限額	-10.177
停	-10.177
を回避	-10.177
求める	-10.177
赤	-10.177
電子マニフェスト	-10.177
念	-10.177
位置づけ	-10.177
骨	-10.177
すべての	-10.177
コンサルティング	-10.177
生活習慣病	-10.177
特別支援教育	-10.177
クリーン	-10.177
追跡	-10.177
提出された	-10.177
替	-10.177
FCV	-10.177
ation	-10.177
に努める	-10.177
良質な	-10.177
簡易	-10.177
取扱い	-10.1771
未然防止	-10.1771
配送	-10.1771
シティ	-10.1771
調査票を配布	-10.1771
西	-10.1771
クラブ	-10.1771
公共サービス改革法	-10.1771
影響を及ぼ	-10.1771
迫	-10.1771
アンケート	-10.1771
長寿化	-10.1771
長寿命化	-10.1771
変換	-10.1771
大きい	-10.1771
スキーム	-10.1771
三次元	-10.1771
打	-10.1771
危機管理	-10.1771
蓄	-10.1771
を対象とする	-10.1771
母	-10.1771
見通し	-10.1771
日常生活	-10.1771
の中核的機関として	-10.1771
石綿	-10.1771
証明書	-10.1771
挑戦的	-10.1771
スキル	-10.1771
提出された調査票は	-10.1771
中長期計画	-10.1771
建材	-10.1771
期科学技術基本計画	-10.1772
フィールド	-10.1772
レーザー	-10.1772
チーム	-10.1772
高まり	-10.1772
に配慮した	-10.1772
ウラン	-10.1772
世界最高水準の	-10.1772
管轄する	-10.1772
液	-10.1772
エリア	-10.1772
汚	-10.1772
附	-10.1772
インフルエンザ	-10.1772
CTBT	-10.1772
を総合的かつ	-10.1772
突	-10.1772
Rad	-10.1772
耐震化	-10.1772
ネット	-10.1772
区分	-10.1772
核物質防護	-10.1773
全球	-10.1773
軍	-10.1773
堤	-10.1773
に存在する	-10.1773
に要する経費を補助する	-10.1773
上昇	-10.1773
技術基準等の改正や	-10.1773
誘導弾	-10.1773
未だ	-10.1773
農村	-10.1773
柱	-10.1773
を生み出す	-10.1773
多数の	-10.1773
ダイオキシン類	-10.1773
多種多様な	-10.1773
半導体	-10.1774
トルコ	-10.1774
若者	-10.1774
の参入	-10.1774
湿地	-10.1774
送付	-10.1774
の具体化	-10.1774
の少ない	-10.1774
文書	-10.1774
南海トラフ地震	-10.1775
コストの低減	-10.1775
妥当性確認	-10.1775
効率的かつ効果的な	-10.1775
最終処分	-10.1775
原子力規制委員会	-10.1775
東京電力福島第一原子力発電所事故	-10.1775
PCB	-10.1776
戦闘機	-10.1776
発注	-10.1776
離島	-10.1776
ごとの	-10.1777
ダイ	-10.1777
回路	-10.1778
面積	-10.1778
組成	-10.1779
下記	-10.1779
十分な	-10.178
流域	-10.178
生命	-10.1781
発明	-10.1782
新設	-10.1782
合わせて	-10.1782
横断的な	-10.1783
国連大学	-10.1783
必要に応じて	-10.1783
発見	-10.1783
当研究所	-10.1784
以下の取組を実施	-10.1784
航空交通	-10.1784
バー	-10.1785
地熱	-10.1785
中東	-10.1787
低炭素社会	-10.1788
有用	-10.1788
〕。	-10.1788
都市再生	-10.1789
施行された	-10.179
設置されている	-10.179
守り	-10.1791
設備投資	-10.1793
終了後	-10.1793
安心の確保	-10.1795
定められた	-10.1796
指定都市	-10.1796
海事	-10.1797
戦略策定	-10.1798
高品質	-10.1799
のもと	-10.1799
を把握することにより	-10.18
再審査	-10.18
業種	-10.1803
水準の向上	-10.1803
広報活動	-10.1804
最大化	-10.1804
SA	-10.1806
電波利用	-10.1806
エネルギー基本計画	-10.1806
基準の作成	-10.1807
シー	-10.181
健康被害	-10.1812
機動性	-10.1812
国際交流	-10.1814
機体	-10.1815
政策決定	-10.1815
任務	-10.182
火山活動	-10.182
社会課題の解決	-10.1821
知的	-10.1825
との協力	-10.1833
政府機関	-10.1835
精度管理	-10.184
産業分野	-10.184
水産に関する	-10.1842
海外からの	-10.1843
森林資源	-10.1843
科学技術協力	-10.1859
設備の導入	-10.1871
運営費	-10.1874
資源の有効	-10.1875
未来社会	-10.1876
医療提供	-10.188
調査結果は	-10.1887
。4。	-10.189
を低減する	-10.1891
社会科学	-10.1904
技術指針	-10.1906
研究委員会	-10.1918
力の強化	-10.1922
に貢献するとともに	-10.1936
食品産業	-10.1937
も活用し	-10.196
研究機関として	-10.2016
の共同	-10.2016
安全かつ	-10.2018
ty	-10.2018
になる	-10.2024
ネットワーク化	-10.2029
等に関し	-10.203
屋内	-10.2031
評価方法	-10.2049
手法の検討	-10.2051
安全性の確保	-10.206
技術を開発し	-10.2079
の推進のため	-10.2117
法制度	-10.2124
基礎データ	-10.2128
反応	-10.2152
を十分に	-10.22
II	-10.2212
設備整備	-10.2234
結果を踏まえ	-10.2281
等の観点から	-10.2293
評価手法の開発	-10.2308
全国で	-10.232
情報センター	-10.2324
にわたって	-10.2326
軽減を図る	-10.2388
を行うために	-10.2388
環境問題	-10.2435
プラ	-10.2442
を進めていく	-10.2489
の進捗状況	-10.2496
可能とする	-10.2502
国民の安全	-10.2516
観測網	-10.2535
ための基盤整備	-10.2543
政府全体	-10.2543
原子力安全	-10.2559
安全基準	-10.2574
を達成するため	-10.2635
より効果的な	-10.2657
を行うものである	-10.2664
動向について	-10.2687
マイ	-10.269
を利用して	-10.2695
の活動を支援する	-10.273
を高め	-10.2768
軽減する	-10.2793
付与	-10.2818
内水面	-10.287
行政施策	-10.2877
に関する知見	-10.2882
我が国の国際競争力	-10.2889
実現に向けた	-10.2894
した場合の	-10.2894
促	-10.2903
技術を用いた	-10.2905
主要	-10.2915
症例	-10.2922
制	-10.2964
治	-10.2966
票	-10.2996
公害	-10.2998
審査会の	-10.3001
に要する費用	-10.3004
ヘルス	-10.3006
ご	-10.3006
規	-10.3007
試	-10.3008
女	-10.3009
アンモニア	-10.301
も含め	-10.301
年度介護報酬改定	-10.3011
CLT	-10.3011
着実な	-10.3012
区	-10.3012
推	-10.3012
年度から令和元年度にかけて	-10.3014
放射	-10.3015
人獣共通感染症	-10.3015
厚生	-10.3015
新興	-10.3016
南極	-10.3016
乗	-10.3016
を必要とする	-10.3016
揚	-10.3016
非接触	-10.3016
感	-10.3016
戦闘	-10.3016
侵害対策	-10.3017
情	-10.3017
日本学士院	-10.3017
富	-10.3017
均	-10.3017
b	-10.3017
JOGMEC	-10.3018
洗	-10.3018
喫緊の課題	-10.3018
身	-10.3019
販	-10.3019
補助金を交付する	-10.3019
築	-10.3019
燃焼	-10.3019
遂行する	-10.3019
荷主	-10.3019
MOX	-10.3019
地域漁業管理機関	-10.3019
をいう	-10.3019
噴火	-10.3019
を反映した	-10.3019
パッケージ	-10.3019
乱	-10.3019
るための施設等の整備に必要な経費	-10.3019
食品の輸出	-10.3019
留	-10.3019
まん延防止	-10.3019
が持つ	-10.3019
パラリンピック競技大会	-10.3019
中間評価	-10.3019
び	-10.3019
ゼロ	-10.302
況	-10.302
継承	-10.302
シンクタンク	-10.302
制限	-10.302
地方衛生研究所	-10.302
手引き	-10.302
鳥	-10.302
災害発生時	-10.302
を超える	-10.302
不純物	-10.302
店	-10.302
岸	-10.302
新産業の創出	-10.302
身近な	-10.302
歳	-10.302
鑑み	-10.302
床	-10.302
幹部自衛官	-10.302
または労政主管事務所を経由して	-10.302
働	-10.302
構成要素	-10.302
都府県	-10.302
に貢献し	-10.302
グループ	-10.302
トラブル	-10.302
パラリンピック	-10.302
極めて重要である	-10.302
実用新案	-10.3021
洋上風力発電	-10.3021
に繋がる	-10.3021
に記載	-10.3021
潜在的	-10.3021
等の研究機関からなる研究	-10.3021
河道	-10.3021
EBPM	-10.3021
常用労働者	-10.3021
精神	-10.3021
採取	-10.3021
が所管する	-10.3021
ザ	-10.3021
量子科学技術研究開発機構	-10.3021
端末	-10.3021
アスベスト	-10.3021
産業技術総合開発機構	-10.3021
映像配信	-10.3021
民間事業者に請け負わせ	-10.3021
建築基準法	-10.3021
板	-10.3021
世界に先駆けて	-10.3021
物理学	-10.3021
答	-10.3021
自動走行	-10.3021
環境の保全及び	-10.3021
責任	-10.3021
演習	-10.3021
医薬品医療機器総合機構	-10.3021
急性中毒	-10.3021
GHG	-10.3021
ドライバー	-10.3021
技術水準の向上を図ることを目的と	-10.3021
医療分野の研究開発	-10.3022
IMO	-10.3022
中深度処分	-10.3022
BSL	-10.3022
の印刷	-10.3022
タスクフォース	-10.3022
小児慢性特定疾病	-10.3022
が頻発し	-10.3022
環境影響評価	-10.3022
を行っており	-10.3022
が急増し	-10.3022
オンライン資格確認	-10.3022
労働争議	-10.3022
の基礎資料とする	-10.3022
ナノテクノロジー	-10.3022
健康長寿社会の形成	-10.3022
士課程	-10.3022
槽	-10.3022
ポンプ	-10.3022
以内を補助	-10.3022
自律的	-10.3022
異業種	-10.3022
発掘し	-10.3022
電波の伝わり方	-10.3022
金融機関	-10.3022
電源立地地域	-10.3022
貸与	-10.3022
家計	-10.3022
UNEP	-10.3022
民間団体等	-10.3022
大学共同利用機関法人	-10.3023
インベントリ	-10.3023
ッチ	-10.3023
食文化	-10.3023
厚生労働省へ提出	-10.3023
浜通り	-10.3023
第三	-10.3023
被災地域	-10.3023
を設け	-10.3023
立ち上げ	-10.3023
が期待されている	-10.3023
フロー	-10.3023
教師	-10.3023
うえで	-10.3023
シリコンバレー	-10.3023
各研究事業	-10.3024
吸収量	-10.3024
治山	-10.3024
建設生産システム	-10.3024
クター	-10.3024
出席	-10.3024
分離	-10.3024
エネルギーの安定	-10.3024
AMR	-10.3024
我が国海事産業	-10.3025
発達	-10.3025
審査を経て	-10.3025
通常	-10.3025
少なく	-10.3025
伐	-10.3025
倒	-10.3025
出荷	-10.3025
原油	-10.3025
な利用の確保を図る	-10.3025
酸	-10.3025
航路	-10.3025
身体	-10.3025
研究開発管理システム	-10.3026
形状	-10.3026
少子	-10.3026
文化財	-10.3026
我が国発の	-10.3026
東北	-10.3027
沿岸域	-10.3027
断熱	-10.3027
会社	-10.3027
NDB	-10.3028
分野横断的な	-10.3028
地熱資源	-10.3028
が顕在化し	-10.3028
ニア	-10.3028
成立	-10.3028
電気自動車	-10.3028
トップ	-10.3029
排出ガス	-10.3029
介護ロボット	-10.3029
セミナーの開催	-10.3029
保有	-10.3029
飛行	-10.303
人材養成	-10.303
製作	-10.303
統一的な	-10.303
に必要な経費を補助する	-10.303
高潮	-10.303
世界最先端の	-10.303
オフ	-10.303
防衛省	-10.3031
短期大学	-10.3031
土工	-10.3031
官庁	-10.3031
材料メーカー	-10.3031
実務	-10.3032
適切に対応	-10.3032
高付加価値	-10.3032
加速器	-10.3033
比較的	-10.3034
リース	-10.3034
生物多様性保全	-10.3034
の実現を目指し	-10.3035
職場	-10.3035
する必要があり	-10.3035
短期	-10.3035
を可能とし	-10.3035
発現	-10.3035
教職員	-10.3036
以下の事業を実施する	-10.3036
人文	-10.3037
食品中の	-10.3037
科学技術イノベーション政策	-10.3038
動物実験	-10.3038
選定された	-10.3039
更新工事	-10.3041
薬事	-10.3042
最新の科学的知見	-10.3042
合成	-10.3043
から構成される	-10.3044
気象観測	-10.3044
毎月	-10.3045
温室効果ガス削減	-10.3048
遠隔医療	-10.3049
リア	-10.305
基盤技術開発	-10.3051
カ所	-10.3052
との調整	-10.3052
取りまとめた	-10.3056
補助額	-10.3056
基礎となる	-10.3058
自立した	-10.3059
各段階	-10.3061
イノベーション会議	-10.3062
低炭素化	-10.3062
後継機	-10.3063
公害防止	-10.3063
最新知見	-10.3066
水際	-10.3066
法の施行	-10.3067
既に	-10.3067
第一	-10.3068
教育委員会	-10.3069
GT	-10.3069
問題の解決	-10.3076
取組への支援	-10.3077
排出量削減	-10.3077
産学連携	-10.3078
NICT	-10.3079
していない	-10.3082
課題解決に資する	-10.3085
政策形成	-10.3085
安全性確保	-10.3086
産業財産権制度	-10.3087
老朽化対策	-10.3091
大気中	-10.3091
グローバル化	-10.3092
だが	-10.3096
活動の実態	-10.3096
課題に対応する	-10.3108
うる	-10.3111
用経費	-10.3118
設計を実施すると共に	-10.3123
を設置する	-10.3135
政策課題	-10.3144
に従事する	-10.3145
に要する	-10.315
明らかにし	-10.315
医療戦略	-10.3152
単位で	-10.3156
作成した	-10.3157
データベース化	-10.3162
労働環境	-10.3168
との関係	-10.3173
必要とされる	-10.3179
国際連携	-10.3191
本業務	-10.3197
用水	-10.3232
下における	-10.3237
研究設備	-10.3241
管理技術の開発	-10.3247
知見を蓄積	-10.3253
反映させる	-10.3267
主要な	-10.3296
積極的	-10.3337
利用拡大	-10.3356
性能評価	-10.3376
施策の推進	-10.3382
イズ	-10.3382
するべく	-10.3392
に向けた取組を支援する	-10.3411
基盤構築	-10.3419
を目指している	-10.3423
持続	-10.3424
安全管理	-10.343
あらゆる分野	-10.3443
目標を達成する	-10.3462
研究及び開発	-10.3477
普及させる	-10.3543
国民の健康	-10.3592
年度に実施した	-10.3598
技術の普及	-10.3612
建設業	-10.3621
システムを整備	-10.3626
二次	-10.3638
していくため	-10.3661
研究施設の整備	-10.3662
の在り方について	-10.3667
の確立を目指す	-10.3683
知識の普及	-10.3725
を運用する	-10.3764
物質について	-10.3792
を策定するため	-10.3804
啓発活動	-10.3819
体制を整備する	-10.3833
連携させ	-10.3849
のあり方について	-10.3873
被害防止	-10.3917
総合的な調査	-10.3972
再利用	-10.3983
一体的に	-10.4045
創出に向けた	-10.4054
求められている	-10.4074
への反映	-10.4106
を解決するため	-10.4133
st	-10.4141
研修会	-10.415
を防止する	-10.4157
SC	-10.4162
汚染物質	-10.4175
を創設	-10.4192
研究開発成果の	-10.4229
ロス	-10.4241
を実証する	-10.4252
我が国では	-10.4263
継続して	-10.4276
アジア太平洋	-10.429
能	-10.4292
が可能であ	-10.4302
特徴	-10.4316
インテグレーション	-10.4316
必要な経費	-10.4317
選定した	-10.4324
あたり	-10.4361
本研究は	-10.4362
就	-10.4363
速やかに	-10.4368
状況を把握するため	-10.4387
物価	-10.4404
の詳細	-10.4408
宅地	-10.4418
ことが重要	-10.4418
強化を図るため	-10.4422
代	-10.4424
補完	-10.4428
介護保険総合データベース	-10.4431
即	-10.4435
に備え	-10.4435
まん延	-10.4437
先導的	-10.4438
LAWS	-10.4439
独創的	-10.4439
漁	-10.444
心	-10.4441
優れ	-10.4441
経費を補助する	-10.4441
途	-10.4441
交	-10.4442
ソーナー	-10.4442
ウナギ	-10.4442
を有効に活用	-10.4443
普及指導員	-10.4443
統一	-10.4443
認定を受けた	-10.4443
興	-10.4444
を図っている	-10.4444
電波が人体	-10.4445
当局	-10.4445
転	-10.4445
まとめ	-10.4445
HFC	-10.4445
ファイバ	-10.4445
論点	-10.4445
静	-10.4445
の生活習慣	-10.4445
が期待できる	-10.4445
アセスメント	-10.4445
を持って	-10.4446
宿舎	-10.4446
脆弱な	-10.4446
1、000	-10.4446
を越え	-10.4446
参考	-10.4446
UNIDO	-10.4446
売	-10.4446
役	-10.4446
ゲノム編集技術	-10.4446
国民経済計算	-10.4446
バッテリー交換式	-10.4447
スクリーニング	-10.4447
レビュー	-10.4447
岩	-10.4447
放射光	-10.4447
後発医薬品	-10.4447
例えば	-10.4447
オゾン	-10.4447
に関連した	-10.4447
指示した中長期目標	-10.4447
参照	-10.4448
確実な	-10.4448
土壌汚染	-10.4448
炭	-10.4448
宇宙ステーション	-10.4448
専用の	-10.4448
直面している	-10.4448
先行技術文献調査	-10.4448
を勘案し	-10.4448
を可能にする	-10.4448
2018	-10.4448
メダル	-10.4448
修繕	-10.4448
土石流	-10.4448
納	-10.4448
順	-10.4448
を想定した	-10.4448
権益	-10.4448
特有の	-10.4448
太	-10.4448
束	-10.4448
に支障を	-10.4448
地殻変動	-10.4448
葉	-10.4448
土木技術	-10.4448
及	-10.4448
ケーブルテレビ	-10.4448
に役立てる	-10.4448
に繋げる	-10.4448
に関する大綱	-10.4448
グリーン	-10.4448
産業保安	-10.4448
複雑な	-10.4448
運輸技術	-10.4448
を円滑に実施するため	-10.4449
を前提とし	-10.4449
致	-10.4449
に掲げる	-10.4449
デザイン	-10.4449
を巡る	-10.4449
NEDO	-10.4449
パイロット	-10.4449
勢	-10.4449
山村	-10.4449
歴	-10.4449
適確	-10.4449
装備品の	-10.4449
世界に先駆けた	-10.4449
完了	-10.4449
航路標識	-10.4449
3/4	-10.4449
デジタルトランスフォーメーション	-10.4449
下水処理場	-10.4449
原爆被爆者	-10.4449
センシング	-10.4449
証明	-10.4449
を介して	-10.4449
GMP	-10.4449
ポイント	-10.4449
季	-10.4449
事業番号	-10.4449
遊	-10.4449
マテリアル	-10.4449
ニング	-10.445
国立環境研究所	-10.445
シリーズ	-10.445
液状化	-10.445
による健康影響	-10.445
功	-10.445
町	-10.445
が発生している	-10.445
に掲げられた	-10.445
アクセシビリテ	-10.445
イスラエル	-10.445
ゼロエミッション	-10.445
敵	-10.445
の底上げ	-10.445
明確な	-10.445
有明海	-10.445
社会的要請	-10.445
に関する総合的な研究開発機関	-10.445
バイオマスプラスチック	-10.445
伝染性疾病	-10.445
このように	-10.445
ポリオウイルス	-10.445
日米	-10.445
専修学校	-10.445
リーダーシップ	-10.445
食糧	-10.445
高等学校	-10.445
が進行し	-10.445
アレイ	-10.445
経済産業局	-10.445
差	-10.445
プロトタイプ	-10.445
迅速かつ的確	-10.445
トレーニング	-10.445
ホート	-10.445
励	-10.445
空調設備	-10.445
警察活動	-10.445
を構成する	-10.445
心身の	-10.445
水俣条約	-10.445
了	-10.4451
科学技術の水準の向上を図る	-10.4451
越	-10.4451
空中線	-10.4451
熟	-10.4451
リサーチ	-10.4451
リスクアセスメント	-10.4451
国土の保全	-10.4451
多言語音声翻訳	-10.4451
日本再興戦略	-10.4451
紙	-10.4451
高校生	-10.4451
予防的対策	-10.4451
廃棄物の処理	-10.4451
シームレス	-10.4451
飛散	-10.4451
渡	-10.4451
兆	-10.4451
やすく	-10.4451
をリードする	-10.4451
フォーマット	-10.4451
振	-10.4451
ダイナミック	-10.4451
公平	-10.4451
余	-10.4451
含有	-10.4451
多言語翻訳	-10.4451
滅	-10.4451
の中核となる	-10.4451
農畜産物	-10.4451
という課題がある	-10.4451
福島県浜通り地域	-10.4451
に関する技術上の	-10.4452
波浪	-10.4452
PRTR	-10.4452
が深刻化	-10.4452
喫緊の課題となっている	-10.4452
協会	-10.4452
太陽光発電の	-10.4452
水陸両用	-10.4452
花粉症	-10.4452
抑	-10.4452
緯	-10.4452
燃料デブリ	-10.4452
副作用	-10.4452
農地中間管理機構	-10.4452
ISTC	-10.4452
フランス	-10.4452
原因の	-10.4452
農業農村開発	-10.4452
なかった	-10.4453
識別	-10.4453
坑廃水	-10.4453
風車	-10.4453
潮流	-10.4453
高病原性	-10.4453
農作物	-10.4454
国民の生命	-10.4454
次期基本計画	-10.4454
判定	-10.4454
リスクコミュニケーション	-10.4454
畜産物	-10.4455
開放	-10.4455
スギ	-10.4455
ss	-10.4455
利益	-10.4455
供用	-10.4455
韓国	-10.4456
日常	-10.4456
競争力の強化	-10.4456
と共同で	-10.4457
自動車メーカー	-10.4457
ヒト	-10.4457
も含む	-10.4457
客体	-10.4457
as	-10.4457
管路	-10.4457
照会	-10.4458
スマート林業	-10.4458
テック	-10.4458
中核市	-10.4458
自発的	-10.4458
不明	-10.4458
等の先端技術を活用した	-10.4458
かつ円滑に	-10.4459
機会を提供する	-10.4459
着実な実施	-10.4459
特定健診	-10.4459
組合	-10.446
固体	-10.446
月末	-10.4461
と連携しつつ	-10.4461
事案	-10.4461
選別	-10.4462
書類	-10.4462
独創的な	-10.4462
経済界	-10.4462
即時	-10.4464
を活かして	-10.4464
国家戦略	-10.4465
公的統計	-10.4465
円滑かつ	-10.4466
創生	-10.4466
排出実態	-10.4467
産品	-10.4467
人命	-10.4468
創薬支援	-10.4469
流れ	-10.4471
我が国が有する	-10.4471
が可能となる	-10.4474
産業の競争力強化	-10.4474
基本設計	-10.4474
ビジネスモデル	-10.4475
保健指導	-10.4476
に参画する	-10.4476
土地利用	-10.4477
研究者の育成	-10.4477
インターネットを通じて	-10.4478
ニーズに応じた	-10.4478
システムの改修	-10.4479
。→。	-10.4479
事務費	-10.448
費用の一部を補助する	-10.448
高精度な	-10.448
流入	-10.4481
合意	-10.4482
採択された	-10.4483
能力構築	-10.4484
測定結果	-10.4485
を安全に	-10.4486
制度改正	-10.4488
んだ	-10.4488
で構成される	-10.4488
温室効果ガスの排出削減	-10.4489
動き	-10.4489
健康障害	-10.449
EC	-10.449
業務部門	-10.4493
リン	-10.4493
サービスの創出	-10.4497
自立的な	-10.4497
都市モデル	-10.4499
本事業の目的	-10.45
原子力発電	-10.4501
同一	-10.4503
分野においても	-10.4505
の普及拡大	-10.4506
各主体	-10.4508
木材産業	-10.4511
運転管理	-10.4511
を養成する	-10.4512
労働力	-10.4512
策定された	-10.4514
を共有し	-10.4515
での議論	-10.4516
施設の維持管理	-10.4524
ことのできる	-10.4524
への技術支援	-10.4524
都市計画	-10.4528
効果的に推進する	-10.453
安定性	-10.4531
薬剤耐性に関する	-10.4532
プログラムの開発	-10.4532
農業経営	-10.4535
体制強化	-10.4537
低コストで	-10.454
教育プログラム	-10.4545
で構成	-10.4559
各分野の	-10.4561
が協調し	-10.4566
実際に	-10.4581
官民連携	-10.4606
その際	-10.4613
対象となる	-10.4638
自動車の安全	-10.4641
プロ	-10.4657
につなげるため	-10.4672
、202	-10.4673
動向等について	-10.4678
検査制度	-10.4682
体制の確立	-10.4687
占める	-10.4703
が高まっている	-10.4741
がなされ	-10.4747
実施主体	-10.4753
長期間	-10.4753
への参加	-10.4755
世界各国	-10.4763
を選定し	-10.4764
が確保され	-10.4824
先進技術	-10.4824
促進を図ることを目的とする	-10.4829
推進方策	-10.4844
促進を図るため	-10.4868
経費の一部を補助	-10.4894
1/2、1/3	-10.4899
体制を整備	-10.4988
得られた知見	-10.5085
有害性調査	-10.5113
説明会	-10.5136
役割を果たす	-10.5173
学校施設	-10.5189
を取得し	-10.5197
ための方策	-10.5213
行動計画	-10.5214
を行います	-10.524
策の検討	-10.5256
手法の確立	-10.5261
を加速するため	-10.5283
新規制基準	-10.5351
規制動向	-10.5396
及ぼす影響	-10.5397
内外	-10.5403
する際の	-10.5408
資料の収集	-10.5489
本研究では	-10.5507
ID	-10.5515
活動に参画	-10.5516
専門分野	-10.5576
発展並びに	-10.5616
生じた	-10.5626
要素	-10.565
経費のうち	-10.5652
ことを通じ	-10.5656
することを可能とする	-10.5669
の連携強化	-10.5699
公共施設	-10.5754
目的とする	-10.5757
の目標達成	-10.5779
あり方	-10.5785
推計手法	-10.5799
地球規模課題	-10.581
クス	-10.5865
更	-10.5895
十分	-10.594
発電所の	-10.5953
年度にかけてシステム設計を実施	-10.5982
サービスを提供	-10.6024
につなげ	-10.604
に対する補助を行う	-10.6041
の状況を把握する	-10.6051
供	-10.6068
開発途上	-10.6074
米	-10.6075
が求められ	-10.609
事業者間	-10.6091
活	-10.6091
介護給付費明細書等の情報	-10.6093
輸	-10.6094
介護報酬の改定	-10.6097
介護給付費	-10.6098
日常生活圏域	-10.6098
総合効率化計画	-10.6098
地域包括ケア	-10.6099
最小化	-10.6102
抜本的	-10.6103
定められ	-10.6104
府省	-10.6106
高温超電導	-10.6106
ジェトロ	-10.6106
識	-10.6108
潜	-10.6108
院	-10.6108
技術的助言	-10.6109
植	-10.611
比	-10.611
大容量	-10.611
含	-10.611
ターゲット	-10.611
熊	-10.6111
であった	-10.6111
湿	-10.6111
IPBES	-10.6111
アイヌ	-10.6111
柄	-10.6112
議定書	-10.6112
農業機械	-10.6112
ゲ	-10.6112
イニシアティブ	-10.6112
執	-10.6113
低遅延	-10.6113
日本学術会議	-10.6113
巻	-10.6113
携帯電話	-10.6113
独自の	-10.6113
南海トラフ	-10.6113
トランジション	-10.6113
良	-10.6113
首	-10.6113
に比べ	-10.6114
優秀な	-10.6114
バランス	-10.6114
ブランド	-10.6114
量産化	-10.6114
担当部局	-10.6114
節	-10.6114
次世代冷媒	-10.6114
福	-10.6114
が少ない	-10.6114
分かりやすく	-10.6114
勘	-10.6114
意欲と能力	-10.6114
押	-10.6114
時点で	-10.6114
親	-10.6114
破	-10.6114
相当額	-10.6114
な遂行	-10.6114
私	-10.6114
に役立つ	-10.6114
ワーク	-10.6114
キャッシュレス	-10.6114
取り入れ	-10.6114
容易性	-10.6114
戸	-10.6114
現実の	-10.6114
空き家	-10.6114
閉	-10.6114
静止気象衛星	-10.6114
括	-10.6114
を図っていく	-10.6115
英	-10.6115
が進んでいない	-10.6115
”	-10.6115
随時	-10.6115
速やかな	-10.6115
の地域における農林水産業に関する	-10.6115
キャリア	-10.6115
ファレンス	-10.6115
レポート	-10.6115
家族	-10.6115
農畜水産物	-10.6115
高齢化の進展	-10.6115
生産現場における	-10.6115
木質バイオマス	-10.6115
の担い手となる人材	-10.6115
フロンティア	-10.6115
略	-10.6115
ドーピング	-10.6115
コネク	-10.6115
バンク	-10.6115
臨床研究中核病院	-10.6115
抜	-10.6115
中間貯蔵	-10.6115
整理及び提供	-10.6115
那	-10.6115
長期エネルギー需給見通し	-10.6115
電子基準点	-10.6115
多角的	-10.6115
なければ	-10.6115
の両立	-10.6115
家庭用品	-10.6115
赤外線センサ	-10.6115
労働大学校	-10.6115
労務管理	-10.6115
径	-10.6116
コンポーネント	-10.6116
マスタープラン	-10.6116
依然として	-10.6116
多言語	-10.6116
巡視	-10.6116
栄養塩	-10.6116
特色	-10.6116
生徒指導	-10.6116
ガバメント	-10.6116
伐採	-10.6116
を除く	-10.6116
基盤的研究や人材育成	-10.6116
老	-10.6116
数量管理	-10.6116
UEP	-10.6116
尿	-10.6116
全国の介護サービス	-10.6116
御	-10.6116
GNSS	-10.6116
を超えて	-10.6116
チェック	-10.6116
医療系ベンチャー	-10.6116
滞	-10.6116
環境測定分析	-10.6116
的かつ効率的な供給の確保に資する	-10.6116
解説	-10.6116
電波伝搬	-10.6116
活断層	-10.6116
▁System	-10.6116
崩	-10.6116
ハンセン病	-10.6116
不確実性	-10.6116
信託基金	-10.6116
危害要因	-10.6116
成長戦略フォローアップ	-10.6116
録	-10.6116
橋渡し	-10.6116
三角点	-10.6116
原子力発電施設等の	-10.6116
廃棄物の適正処理	-10.6116
概念	-10.6116
魅力ある	-10.6116
見込み	-10.6116
中堅	-10.6116
崩壊	-10.6116
簡素化	-10.6116
が中心となって	-10.6116
リモート	-10.6116
をまとめる	-10.6116
打ち上げ	-10.6116
経過した	-10.6116
SINET	-10.6116
に属する	-10.6116
特色ある	-10.6116
裁	-10.6116
地理情報	-10.6116
か年計画	-10.6116
原子炉等規制法	-10.6116
奨学金	-10.6116
急激な	-10.6116
画	-10.6116
を継続的に観察する	-10.6116
カーボンニュートラル	-10.6116
周波数標準値	-10.6116
提出された調査票については	-10.6116
週	-10.6116
私立大学等	-10.6116
焼	-10.6117
にふさわしい	-10.6117
免疫	-10.6117
地域が抱える様々な課題	-10.6117
年度補正予算	-10.6117
賃	-10.6117
の飛躍的な向上	-10.6117
シフト	-10.6117
世代移動通信システム	-10.6117
公共用水域	-10.6117
工業製品等の品質	-10.6117
技術上の試験及び研究	-10.6117
研究機関や大学等	-10.6117
秘	-10.6117
調査票の配布	-10.6117
過労死等防止対策推進	-10.6117
遺児	-10.6117
類似	-10.6117
	-10.6117
大臣会合	-10.6117
初等中等教育	-10.6117
射撃	-10.6117
経済財政運営と改革の基本方針	-10.6117
第四次産業革命	-10.6117
を媒介	-10.6117
公益財団法人	-10.6117
鹿	-10.6117
原子力の平和的利用	-10.6117
な周波数共用	-10.6117
に精通した	-10.6117
の向上及び水産業	-10.6117
及び専用試験装置	-10.6117
台帳	-10.6117
早急に	-10.6117
盛	-10.6117
顕	-10.6117
ふ	-10.6117
オフィス	-10.6117
厳正な	-10.6117
将来人口推計	-10.6117
独立した	-10.6117
紫外線	-10.6117
費用を補助する	-10.6117
費用対効果	-10.6117
邦	-10.6117
雑音	-10.6117
地域未来牽引企業	-10.6117
大気汚染防止法	-10.6117
バイオテクノロジー	-10.6117
メリット	-10.6117
管理不全化	-10.6117
農業支援サービス	-10.6117
酸化物	-10.6117
南	-10.6117
NET	-10.6117
サステイナブル	-10.6117
報という方法で提供	-10.6117
所有者	-10.6117
血液製剤	-10.6117
日中韓	-10.6117
経年劣化	-10.6117
GaN	-10.6117
への働きかけ	-10.6117
しさを増している	-10.6118
ヘリコプター	-10.6118
ムーンショット型研究開発制度	-10.6118
健康寿命の延伸	-10.6118
動態統計調査	-10.6118
北極域	-10.6118
台湾	-10.6118
神経	-10.6118
食料自給率	-10.6118
基礎基盤研究	-10.6118
基礎研究及び基盤的研究開発	-10.6118
クラス	-10.6118
屋根ふき材	-10.6118
係る補助金の交付	-10.6118
刊	-10.6118
おそれがある	-10.6118
サンゴ礁生態系	-10.6118
有害大気汚染物質	-10.6118
積層造形	-10.6118
院内感染	-10.6118
の理念	-10.6118
ポリオ	-10.6118
と呼ばれ	-10.6118
ッシ	-10.6118
再生医療等の提供	-10.6118
条約事務局	-10.6118
借	-10.6118
任意拠出金	-10.6118
の観測技術等の	-10.6118
アラート	-10.6118
休	-10.6118
平均	-10.6118
脱炭素社会の構築	-10.6118
UDI	-10.6118
ナショナル	-10.6118
に対処するため	-10.6118
ワンストップ	-10.6118
精密	-10.6118
トップレベル	-10.6119
必要とするものに係る医療	-10.6119
洋上	-10.6119
防火	-10.6119
事情	-10.6119
TFI	-10.6119
の要請に	-10.6119
太陽電池	-10.6119
を追求する	-10.6119
水源の	-10.6119
農林水産政策研究所	-10.6119
役務	-10.6119
以下の事業を行う	-10.6119
漁村	-10.6119
港	-10.6119
果たすため	-10.6119
送電線	-10.612
JIS	-10.612
を立て	-10.612
モノ	-10.612
医療費助成	-10.612
大量破壊兵器	-10.612
章	-10.612
屋根	-10.612
ドーピング防止	-10.612
消防庁の	-10.612
議長	-10.612
共創	-10.612
枯	-10.612
身元確認	-10.612
ロタウイルスワクチン	-10.612
化管法	-10.6121
荷役	-10.6121
木質	-10.6121
保持	-10.6121
サケ	-10.6121
ISO	-10.6121
クレジット制度	-10.6121
発電用施設の	-10.6121
試験及び研究並びに	-10.6121
フレン	-10.6122
れば	-10.6122
地理的	-10.6122
経常	-10.6122
to	-10.6122
周波数帯	-10.6122
降水	-10.6123
を確保しつつ	-10.6123
熱帯	-10.6123
都道府県を経由して	-10.6123
危険物流出事故等に係る消防機関	-10.6123
を科学的に	-10.6123
外来種	-10.6123
の出現	-10.6124
無線局	-10.6124
大幅な	-10.6124
を行った上で	-10.6124
に相当する	-10.6124
ケア	-10.6125
設された	-10.6125
まん延を防止する	-10.6125
id	-10.6125
の安定供給を確保する	-10.6125
の立場から	-10.6125
消防防災	-10.6125
法制	-10.6126
比して	-10.6126
上記目的	-10.6126
成育	-10.6126
財政支援を行う	-10.6126
地震防災対策	-10.6127
認証取得	-10.6128
等の大気汚染物質	-10.6128
しようとする	-10.6129
CSTI	-10.6129
災害の予防	-10.613
同じ	-10.613
海洋ごみ	-10.613
海洋生物資源	-10.613
解析コード	-10.613
装置等を試作	-10.6131
電気通信	-10.6131
スタートアップの創出	-10.6131
建築物の省エネ	-10.6131
バス	-10.6131
も含めて	-10.6132
分子	-10.6132
雨水	-10.6132
の性能向上	-10.6133
再エネ熱	-10.6133
に備えた	-10.6133
原子力規制検査	-10.6134
労働条件	-10.6135
の全国的な	-10.6135
実態調査報告書	-10.6135
生産する技術	-10.6136
連合	-10.6136
情報を集約し	-10.6136
を受けている	-10.6137
学科	-10.6138
労働現場	-10.6139
適地	-10.6139
能力を有する	-10.614
データヘルス	-10.614
治療薬	-10.614
通行	-10.614
介護現場	-10.6141
を補完する	-10.6141
高めていくため	-10.6141
算出	-10.6142
報告書作成	-10.6143
問題点	-10.6144
が主導する	-10.6147
これらの成果を	-10.6149
にも対応	-10.615
教育訓練	-10.615
知財専門家	-10.615
集め	-10.6151
分野における生産性向上	-10.6152
基幹業務	-10.6153
高性能な	-10.6153
加速化を図る	-10.6156
基盤技術を開発する	-10.6158
主要国	-10.616
~202	-10.6167
動向の把握	-10.6176
グローバルな	-10.6179
対象物質	-10.618
特性を踏まえた	-10.619
共同利用施設	-10.6192
有害化学物質	-10.6199
臨床情報	-10.6208
していく必要がある	-10.6226
全国規模で	-10.629
内水面漁業	-10.6309
を加速化する	-10.6311
を保全する	-10.6317
されてお	-10.634
可能とするため	-10.6385
東南アジア地域	-10.6416
を確認するため	-10.6417
加え	-10.6431
医学的	-10.644
ヘルスケアサービス	-10.6455
外部専門家	-10.6483
向けた	-10.6483
国際会議等	-10.6544
を持った	-10.6566
結果等を踏まえ	-10.6615
データ連携基盤	-10.6699
のシステム整備	-10.6741
導入要件	-10.6824
必要に応じ	-10.6871
なければならない	-10.6875
を改善する	-10.6956
温室効果ガスの排出	-10.7036
クリ	-10.7073
を評価し	-10.713
を通し	-10.7289
厚生労働行政をはじめ	-10.7306
手法を確立し	-10.7365
の技術開発等を実施	-10.7409
が不可欠	-10.7437
の確立を図る	-10.7438
産業の国際競争力	-10.7493
課題を解決する	-10.7503
一部を補助する	-10.7559
を着実	-10.762
材の安定供給	-10.7687
の国際競争力	-10.7707
ブロックチェーン技術	-10.7888
CM	-10.7889
に発生し	-10.7906
含む	-10.7923
理解を深める	-10.7952
満たす	-10.7982
委員	-10.7982
ッド	-10.8
継	-10.8022
既	-10.8038
構成される	-10.8058
に応じ	-10.8061
日系企業の	-10.807
の意思決定	-10.808
施	-10.8091
傍	-10.8092
分科会	-10.8093
別の特徴	-10.8094
ためのシステム運用	-10.8095
社会保障審議会	-10.8095
制度の適切な運営	-10.8104
臨	-10.8105
燃	-10.8106
慣れ	-10.8106
に必要な情報について	-10.8106
SDS	-10.8106
ラベル	-10.8106
を支え	-10.8107
採	-10.8108
TBE	-10.8108
厚生労働	-10.8108
統	-10.8108
西之島の	-10.8109
IUU	-10.8109
呼吸用保護具	-10.811
相当	-10.811
判	-10.811
論	-10.8111
探	-10.8111
国立公園	-10.8111
袋	-10.8111
飛躍的に	-10.8111
疫	-10.8111
を前提に	-10.8112
原因究明	-10.8112
を適切に把握し	-10.8112
働き方	-10.8112
特定疾患治療研究事業	-10.8112
撃	-10.8112
インターフェース	-10.8112
満	-10.8112
送配電	-10.8112
ガバナンス	-10.8112
試験及び研究	-10.8112
ガソリン車	-10.8112
可変深度ソーナーシステム	-10.8112
基盤地図情報	-10.8112
投	-10.8112
のリテラシー	-10.8112
んでいる	-10.8113
国際的に通用する	-10.8113
イノシシ	-10.8113
図書館	-10.8113
技術的知見の整理を行う	-10.8113
福祉の増進	-10.8113
食品産業技術総合研究機構	-10.8113
での一気通貫	-10.8113
に影響を及ぼす	-10.8113
を生み出	-10.8113
先導研究	-10.8113
我が国の領土	-10.8113
浅	-10.8113
海難救助	-10.8113
商工会議所	-10.8113
弾道ミサイル	-10.8113
自給率	-10.8113
CLA	-10.8113
ハザード	-10.8113
分解軽油	-10.8113
創意工夫	-10.8113
廃棄物埋設	-10.8113
Web	-10.8114
つくば	-10.8114
いち早く	-10.8114
アプリ	-10.8114
飼料生産	-10.8114
フィジカル	-10.8114
の枠組	-10.8114
普	-10.8114
製油所	-10.8114
が増大している	-10.8114
を生かした	-10.8114
林業の成長産業化	-10.8114
経済協力開発機構原子力機関	-10.8114
著	-10.8114
チェンジ	-10.8114
ヶ	-10.8114
塞	-10.8114
視聴データの	-10.8114
州	-10.8114
することを最終目的として	-10.8114
委	-10.8114
没	-10.8114
生物多様性の保全	-10.8114
森林の多面的機能	-10.8114
許認可	-10.8114
飲	-10.8114
に左右され	-10.8115
兆円	-10.8115
LAN	-10.8115
となり得る	-10.8115
かかわらず	-10.8115
の要請に基づき	-10.8115
ゾ	-10.8115
主たる	-10.8115
拓	-10.8115
柔軟な	-10.8115
環境イノベーション戦略	-10.8115
高速大容量	-10.8115
▁基幹統計である	-10.8115
を担保するため	-10.8115
千	-10.8115
講演会	-10.8115
電話	-10.8115
の可否を	-10.8115
アルミニウム	-10.8115
標本資料	-10.8115
活かす	-10.8115
範	-10.8115
湾	-10.8115
安心な社会	-10.8115
アカデミア	-10.8115
水産エコラベル	-10.8115
沖縄県	-10.8115
重度肝硬変	-10.8115
卸	-10.8115
登録調査機関	-10.8115
による環境の汚染	-10.8115
に及ぼす	-10.8115
に所属する研究者	-10.8115
多岐にわたる	-10.8115
時系列	-10.8115
蚕	-10.8115
取締り	-10.8115
データリンク	-10.8115
刊行物	-10.8115
志向	-10.8115
国立医薬品食品衛生研究所	-10.8116
繋	-10.8116
を保有する	-10.8116
事業概要	-10.8116
侵害発生国	-10.8116
全般に関	-10.8116
地理空間情報活用推進基本	-10.8116
条に掲げる	-10.8116
独立行政法人日本貿易振興機構	-10.8116
練	-10.8116
運転期間延長	-10.8116
ビリティ	-10.8116
交通運輸分野	-10.8116
市場に流通している	-10.8116
OIML	-10.8116
を背景に	-10.8116
マイナンバーカード	-10.8116
暗	-10.8116
生産性革命	-10.8116
コントロール	-10.8116
万トン	-10.8116
不具合	-10.8116
中期計画	-10.8116
瀬戸内海	-10.8116
研究者の自由な発想に基づ	-10.8116
競争的研究資金	-10.8116
談	-10.8116
インシデント	-10.8116
レビューシート	-10.8116
世界トップレベルの研究	-10.8116
国民各層	-10.8116
汚染水対策	-10.8116
統合火器管制	-10.8116
遺伝子組換え生物	-10.8116
降雨	-10.8116
理解醸成	-10.8116
にくい	-10.8116
の編成	-10.8116
ひいては	-10.8116
を中心とする	-10.8116
アイデア	-10.8116
ヒヤリ	-10.8116
レギュラ	-10.8116
広く国民へ	-10.8116
正射画像	-10.8116
渡り鳥	-10.8116
無電柱化	-10.8116
移植	-10.8116
退	-10.8116
白	-10.8116
登	-10.8116
籍	-10.8116
ワーキンググループ	-10.8116
亜熱帯	-10.8116
匿名加工医療情報	-10.8116
職業能力開発	-10.8116
知見を取得する	-10.8116
消耗品	-10.8116
筋	-10.8116
コンクリート	-10.8116
ならびに	-10.8116
先制医療	-10.8116
国民への情報提供	-10.8116
施設の導入を支援	-10.8116
時間体制で	-10.8116
積算	-10.8116
革新型蓄電池	-10.8116
ect	-10.8116
放出された	-10.8116
サーバ	-10.8117
優先順位	-10.8117
実現可能性調査	-10.8117
英知を結集	-10.8117
行われたか	-10.8117
読	-10.8117
責務を果たす	-10.8117
電子計算機	-10.8117
Con	-10.8117
▁Techn	-10.8117
医療戦略推進本部	-10.8117
埋	-10.8117
所有する	-10.8117
良好な	-10.8117
電子国土基本図を	-10.8117
olog	-10.8117
捕	-10.8117
私立の大学	-10.8117
LTE	-10.8117
が急務である	-10.8117
に結びつける	-10.8117
スーパー	-10.8117
個別最適化された学び	-10.8117
列	-10.8117
国民経済の健全な発展	-10.8117
子供たち	-10.8117
施策の企画立案	-10.8117
未利用熱	-10.8117
杭	-10.8117
資源循環システム	-10.8117
難治	-10.8117
チェックリスト	-10.8117
賃金	-10.8117
に活用可能な	-10.8117
事後評価を実施する	-10.8117
友	-10.8117
山地災害	-10.8117
業務を効率的かつ円滑に	-10.8117
注意喚起	-10.8117
海底熱水鉱床	-10.8117
縁	-10.8117
軸	-10.8117
適切かつ効果的に	-10.8117
地域住民の福祉の向上を図	-10.8117
80%	-10.8117
上記目的を達成するため	-10.8117
医療分野研究開発推進計画	-10.8117
国連環境計画	-10.8117
歩行者移動支援	-10.8117
発電用施設の設置及び運転の円滑化	-10.8117
さまざまな	-10.8117
に取り組んでいる	-10.8117
スマートフォン	-10.8117
ランド研究所	-10.8117
一般管理費	-10.8117
原子力災害からの復興	-10.8117
未利用資源	-10.8117
段階に応じた支援	-10.8117
長期的視点	-10.8117
敷	-10.8117
無人自動運転	-10.8117
臓	-10.8117
に設置した	-10.8117
の一層の推進を図る	-10.8117
中性子	-10.8117
取り込み	-10.8117
古	-10.8117
Prin	-10.8117
1/3、1/4	-10.8117
の目的を達成するため	-10.8117
を着実に実施し	-10.8117
ビーム	-10.8117
ムーンショット目標	-10.8117
慣行	-10.8117
新たな電波利用ニーズに対応	-10.8117
高精細	-10.8117
オペレーション	-10.8118
周辺地域における公共用施設の整備	-10.8118
国立成育医療研究センター	-10.8118
弾頭	-10.8118
謝	-10.8118
国立高等専門学校	-10.8118
のおそれのある箇所	-10.8118
ミサイル警戒技術	-10.8118
ユニット	-10.8118
医療的ケア児	-10.8118
思	-10.8118
水産業の健全な発展と	-10.8118
社会資本整備	-10.8118
筆	-10.8118
高耐久	-10.8118
に由来する	-10.8118
探索	-10.8118
立入検査	-10.8118
訪日外国人	-10.8118
講習会等	-10.8118
を中心として	-10.8118
キャリアパス	-10.8118
市街地	-10.8118
独立行政法人製品評価技術基盤機構	-10.8118
Gov	-10.8118
いずれ	-10.8118
健康長寿社会を実現する	-10.8118
首脳	-10.8118
アントレプレナー育成	-10.8118
PRISM	-10.8118
を体系的かつ	-10.8118
ロールモデル	-10.8118
医療機器開発支援ネットワーク	-10.8118
国立長寿医療研究センター	-10.8118
我が国が国際競争力を	-10.8118
既設	-10.8118
の水準の向上と均衡ある発展を図る	-10.8118
移管	-10.8118
がけ崩れ	-10.8118
を重点的に支援	-10.8118
生まれ	-10.8118
し続けている	-10.8119
の多い	-10.8119
タイムリー	-10.8119
我が国の高等教育	-10.8119
正しい知識の	-10.8119
比率	-10.8119
異常気象	-10.8119
緊急消防援助隊	-10.8119
コンピューティング	-10.8119
船舶の建造	-10.8119
コンテナ船の	-10.8119
その結果をとりまとめ	-10.8119
リスクを低減	-10.8119
実演	-10.8119
日本科学技術大学	-10.8119
薄	-10.8119
に着目した	-10.8119
我が国周辺水域	-10.8119
膜	-10.8119
駐	-10.8119
かび毒	-10.8119
に活用される	-10.8119
の共有のための	-10.8119
格差	-10.8119
溶	-10.8119
事業性評価	-10.8119
化ガリウム	-10.8119
研究開発の加速	-10.8119
放射性廃棄物処分	-10.812
エビデンスベース	-10.812
公的研究機関等	-10.812
が施工する施設の整備	-10.812
or	-10.812
の本格的な	-10.812
分離回収	-10.812
実習等	-10.812
の深化	-10.8121
メカニズムの解明	-10.8121
住み	-10.8121
ro	-10.8121
拡大を防止する	-10.8121
BIM	-10.8121
労働環境の改善	-10.8121
と連携しながら	-10.8122
将来にわたり	-10.8122
を広く普及させ	-10.8122
浜の活力再生プラン	-10.8122
鉱山	-10.8122
WorldVeg	-10.8122
の質を高める	-10.8122
食品安全委員会	-10.8122
国立大学法人等施設整備	-10.8123
国際農林水産業研究センタ	-10.8123
原案の	-10.8123
日本の強み	-10.8123
ロース	-10.8123
付加価値の高い	-10.8123
間の競争	-10.8123
バック	-10.8124
要素技術開発を行う	-10.8124
医薬	-10.8124
業界団体	-10.8124
の担い手である	-10.8124
部署	-10.8124
基本方針	-10.8125
競争力のある	-10.8125
セル	-10.8126
造形	-10.8127
歯科医療機関	-10.8127
結核研究所	-10.8127
中継	-10.8127
最新の技術動向	-10.8127
に関する基盤研究	-10.8128
現有	-10.8128
解決策	-10.8128
科学的知見の収集	-10.8128
底質	-10.8128
補正	-10.8128
起源	-10.8129
セミナー開催	-10.813
の後継	-10.8134
による被害を防止	-10.8135
等を確認し	-10.8137
を着実に推進	-10.814
実査	-10.8143
信頼性を確保する	-10.8146
を明確にする	-10.8146
情報通信ネットワークの	-10.8147
多発し	-10.8151
に対して補助する	-10.8156
の中から	-10.8157
システムについて研究	-10.8157
現場のニーズ	-10.8159
に必要な経費の補助を行	-10.8164
に資するためのデータベース	-10.8167
等のニーズを踏まえ	-10.8168
この目的を	-10.8172
されているところ	-10.8175
結びつ	-10.8176
成果を普及する	-10.8179
福島第一原子力発電所の廃止措置等	-10.8181
に設立された	-10.8183
設備等を整備	-10.819
を総合的に推進する	-10.8193
課題を解決し	-10.8197
リスク評価手法の	-10.8236
迅速に収集	-10.8269
られるよう	-10.8274
セキュリティ対策の強化	-10.8275
の検査体制の	-10.8301
サプライチェーン全体	-10.8335
922-1	-10.8361
を実現していく	-10.8369
研究の成果を	-10.8405
周知啓発	-10.8406
を有効活用し	-10.8425
生活環境の保全	-10.848
科学的知見を提供	-10.854
シンポジウムを開催	-10.8589
目指すべき	-10.8629
方法の確立	-10.8657
成果の普及を図	-10.8681
対策について検討	-10.8732
を分析すること	-10.8738
を解明する	-10.8744
実態を明らかに	-10.8747
する場合に	-10.8805
を最大限活用する	-10.8816
利便性の向上を図	-10.8999
定めた	-10.9045
そこで本研究	-10.9053
ていくことが必要	-10.909
を未然に防止	-10.9244
生じる	-10.9294
公共サービスの	-10.9514
みならず	-10.9568
機能を強化	-10.969
性を考慮	-10.9818
量を削減する	-10.9823
フォローアップ	-10.9895
等の普及に向け	-10.9908
求められる	-10.9915
東南アジア	-11.0169
情報基盤を整備	-11.0225
コース	-11.0266
で必要な支援	-11.0327
業務に従事	-11.0358
で発生した	-11.0401
目指す	-11.0431
難病法	-11.0449
過労死	-11.0506
体制を確立	-11.0512
に利用する技術	-11.0529
当たり	-11.0535
性を向上させ	-11.0544
な被害をもたらす	-11.0549
協	-11.0555
が高まる	-11.0576
力の向上を図るため	-11.0583
物流総合効率化法	-11.0594
生産プロセスの	-11.0598
漁協	-11.0599
成果の公表	-11.0601
省人化	-11.0602
降	-11.0602
引き上げ	-11.0602
用船料等	-11.0603
検査用試薬	-11.0603
水産業の復興	-11.0605
モーダルシフト	-11.0605
地球規模生物多様性情報	-11.0605
新規就業者	-11.0605
演	-11.0606
利用期を迎え	-11.0607
GPSP	-11.0608
エキノコックス症	-11.0608
都道府県を経由	-11.0608
準	-11.0608
尊	-11.0608
を具体的に	-11.0608
訴	-11.0609
われている	-11.0609
を行ってきた	-11.0609
IUCN	-11.0609
原子力施設の国際供用	-11.0609
業務用施設	-11.0609
爆	-11.0609
魅	-11.0609
クレジット	-11.0609
トレーサビリティ	-11.061
日射計	-11.061
戒	-11.061
説	-11.061
口蹄疫	-11.061
費用を助成	-11.061
に必要である	-11.0611
締約国会議	-11.0611
植物品種保護	-11.0611
自立型エネルギーシステム	-11.0611
隻	-11.0611
集団免疫の現況把握	-11.0611
飛行試験機	-11.0611
食品安全管理規格	-11.0611
GLP	-11.0611
特性及び長期	-11.0611
産官学	-11.0611
宅	-11.0612
j	-11.0612
ルール作り	-11.0612
街	-11.0612
ギ	-11.0612
枢	-11.0612
疾病に対する有効かつ的確な	-11.0612
病原体の検索等の調査	-11.0612
盤	-11.0612
食文化の継承	-11.0612
Net	-11.0612
「	-11.0612
札幌	-11.0612
話	-11.0612
南鳥島	-11.0612
による主要な都市問題解決	-11.0612
に適合した	-11.0612
商用化	-11.0612
対策の構築を図る	-11.0612
義務教育段階	-11.0612
被ばく線量	-11.0612
ファンディング	-11.0613
当事者	-11.0613
準天頂衛星システム	-11.0613
腸	-11.0613
ペレット	-11.0613
を経て	-11.0613
IED	-11.0613
利活用場面を想定した	-11.0613
抱	-11.0613
必要な農業用機械	-11.0613
の患者に対する医療	-11.0613
マルチ	-11.0613
常時観測	-11.0613
平成十一年法律第百九十	-11.0613
有効かつ的確な	-11.0613
訓練課程	-11.0613
資源の持続的利用	-11.0613
総合的な調査研究等を行う	-11.0613
公報発行	-11.0614
国民生活や	-11.0614
地中熱等	-11.0614
地域漁業管理機関の保存管理措置	-11.0614
森林の有する多面的機能	-11.0614
農林水産技術会議事務局	-11.0614
端	-11.0614
を希望する	-11.0614
憲	-11.0614
正確かつ	-11.0614
川	-11.0614
NTA	-11.0614
有益な	-11.0614
による被害の防止や軽減を図るため	-11.0614
ステージ	-11.0614
妊孕性温存療法	-11.0614
新型インフルエンザの	-11.0614
牛の個体識別	-11.0614
3/10	-11.0614
GEOSS	-11.0614
段	-11.0614
我が国の原子力研究開発	-11.0614
旨	-11.0614
信号処理	-11.0614
危機的な渇水	-11.0614
を定量化	-11.0614
インフラメンテナンスデータの	-11.0614
プレゼン	-11.0614
土砂流出	-11.0614
度合い	-11.0614
後発医薬品の使用促進	-11.0614
我が国のトップアスリートが	-11.0614
有効性及び安全性の確保	-11.0614
株式会社	-11.0614
ASV	-11.0614
億円	-11.0614
理化学研究所	-11.0614
画期的な	-11.0614
疎	-11.0614
蓄積するための実証事業を行う	-11.0614
るための事業を実施している	-11.0614
獲	-11.0614
ロタウイルス	-11.0615
NTTA	-11.0615
が進まない	-11.0615
が難しく	-11.0615
にとらわれない	-11.0615
や技能を育成し	-11.0615
を効率的かつ効果的に実施	-11.0615
低消費電力	-11.0615
公的個人認証サービスの	-11.0615
及び取締り等に関する省令に基づ	-11.0615
及び死産	-11.0615
姻	-11.0615
幹部自衛官として必要な	-11.0615
我が国が強みを有する	-11.0615
製錬	-11.0615
観測したデータを	-11.0615
超臨界	-11.0615
GDP	-11.0615
を防ぐ	-11.0615
看護師	-11.0615
河	-11.0615
国の責務	-11.0615
にとどま	-11.0615
アピール	-11.0615
中東和平	-11.0615
品種開発及び育種基盤技術の強化	-11.0615
求職者その他の労働者の職業	-11.0615
泌	-11.0615
等を構成員とする	-11.0615
適時適切に	-11.0615
骨太の方針	-11.0615
再エネ由来水素	-11.0615
許	-11.0615
の計画的な整備	-11.0615
インバウンド	-11.0615
していた	-11.0615
の健康増進効果等	-11.0615
リフォーム	-11.0615
医療の質の向上	-11.0615
恒常的	-11.0615
東京電力ホールディングス	-11.0615
社会資本の	-11.0615
CTCN	-11.0615
DER	-11.0615
を兼ね備えた	-11.0615
ヒト幹細胞	-11.0615
プライバシー	-11.0615
一部郵送	-11.0615
人以上を雇用する	-11.0615
企業間連携	-11.0615
全国の社会福祉施設等	-11.0615
四半期	-11.0615
多観点ターム	-11.0615
建替等	-11.0615
戸建住宅	-11.0615
技術的知見を収集する	-11.0615
東海村	-11.0615
毒物及び劇物	-11.0615
活発な	-11.0615
甚大な被害	-11.0615
訪日外国人旅行者	-11.0615
酸性雨	-11.0615
餌	-11.0615
ひっ迫	-11.0615
連絡調整	-11.0615
から成る	-11.0615
ミュレータ	-11.0615
一人一人	-11.0615
一覧性	-11.0615
地域森林計画	-11.0615
承	-11.0615
既往の	-11.0615
独自に	-11.0615
生物学的製剤	-11.0615
衡	-11.0615
に代表される	-11.0616
若しくは	-11.0616
免	-11.0616
国立保健医療科学院	-11.0616
政策のための科学	-11.0616
NPO	-11.0616
が実施していた調査業務等を複数年	-11.0616
の一翼を担	-11.0616
やりとり	-11.0616
を中核とした	-11.0616
アクションプラン	-11.0616
ドイツ	-11.0616
マイクロ波	-11.0616
モジュール	-11.0616
世界各地	-11.0616
保健衛生上必要不可欠なワクチン	-11.0616
国有林野	-11.0616
就職氷河期世代	-11.0616
抗毒素	-11.0616
教育研究条件の維持向上	-11.0616
衝	-11.0616
郊外住宅市街地の再生	-11.0616
防水層の	-11.0616
シビアアクシデント	-11.0616
主力電源化	-11.0616
_	-11.0616
を迅速かつ的確に行う	-11.0616
公設試等	-11.0616
切れ目なく	-11.0616
妥当性を検証する	-11.0616
急激に	-11.0616
日本薬局方	-11.0616
裁判	-11.0616
銅	-11.0616
アーキテクチャ	-11.0616
リーダーの育成	-11.0616
掃	-11.0616
超スマート社会	-11.0616
NOx	-11.0616
することを目標としている	-11.0616
を調べる	-11.0616
コバルト	-11.0616
サテライトオフィス	-11.0616
マネージメント	-11.0616
倍	-11.0616
労働組合基礎調査	-11.0616
国庫債務負担行為	-11.0616
地上観測設備等	-11.0616
地域公共交通の	-11.0616
外来生物法	-11.0616
大臣管理漁業	-11.0616
序	-11.0616
検索インデックス	-11.0616
正確な知識を普及させる	-11.0616
歯科技工所	-11.0616
水産資源を持続的に利用	-11.0616
法律の規定を検討する際の資料	-11.0616
製品を効率的に生産する	-11.0616
貧酸素水塊	-11.0616
遺伝子組換えカイコ	-11.0616
鋼鉄の	-11.0616
防衛医科大学校	-11.0616
頭	-11.0616
太陽	-11.0616
再造林	-11.0616
CSF	-11.0616
の根拠となる	-11.0616
コンセプト	-11.0616
効果的かつ効率的な	-11.0616
技術基準等の制定	-11.0616
望ましい	-11.0616
理解の増進	-11.0616
資金を交付する	-11.0616
食品中の有害化学物質	-11.0616
不拡散	-11.0616
専門課程	-11.0616
責	-11.0616
鋼	-11.0616
PMDA	-11.0616
QOL	-11.0616
x	-11.0616
の強みをアピールできる	-11.0616
を対象とする調査業務等を	-11.0616
を展望し	-11.0616
ガバメントへの変革を	-11.0616
パワーエレクトロニクス	-11.0616
人口学的	-11.0616
勝	-11.0616
商談会	-11.0616
従前の	-11.0616
無線設備の技術基準	-11.0616
着上陸	-11.0616
認められる	-11.0616
質の維持向上及び経費の削減を図る	-11.0616
遠隔操作	-11.0616
光熱水料	-11.0616
試作品開発	-11.0616
おそれのある	-11.0616
ロードマップの策定への支援を行う	-11.0616
化審法	-11.0616
厳格な	-11.0616
国土数値情報	-11.0616
夏	-11.0616
技術の進歩	-11.0616
文部科学大臣	-11.0616
有害度低減	-11.0616
無線システムとの高度な周波数共用	-11.0616
薬事工業生産動態統計	-11.0616
浜通り地域等の	-11.0617
私立高等学校	-11.0617
ear	-11.0617
▁Information	-11.0617
に出生した子	-11.0617
をテーマとした	-11.0617
エネルギー利用最適化	-11.0617
モーター	-11.0617
中央環境審議会	-11.0617
中高年者縦断調査	-11.0617
介護給付費等実態統計	-11.0617
伝搬異常の把握や予測を行	-11.0617
作業部会	-11.0617
個別の事業ごとの	-11.0617
偏	-11.0617
公共工事における新技術の活用	-11.0617
六	-11.0617
勤	-11.0617
基準に適合するかどうか	-11.0617
大産業に属する民営	-11.0617
施設の整備充実を図るため	-11.0617
日本に課せられた分担金	-11.0617
水産加工業	-11.0617
精度で模擬可能な電波模擬システム	-11.0617
細胞培養加工施設	-11.0617
経年変化の状況	-11.0617
花粉飛散	-11.0617
超小型衛星	-11.0617
野生生物の	-11.0617
電子カルテ	-11.0617
高経年化対策	-11.0617
国立感染症研究所戸山庁舎	-11.0617
福祉及び生活環境に関する	-11.0617
大学等における教育	-11.0617
認知度向上	-11.0617
姿	-11.0617
ile	-11.0617
HPKI	-11.0617
が増加している	-11.0617
に係る主治医意見書の情報等	-11.0617
に準拠した	-11.0617
ガイドブック	-11.0617
フィードバック	-11.0617
原子力発電所の経年劣化	-11.0617
就労	-11.0617
年度に所内試験を実施した後	-11.0617
次世代医療基盤法	-11.0617
質及び原子炉の規制に関する法律	-11.0617
道路運送車両法に基づく	-11.0617
効率化推進費	-11.0617
官民データ活用推進基本	-11.0617
帯域不足	-11.0617
等の業務を総合的に行い	-11.0617
。5/10	-11.0617
これまで以上に	-11.0617
することが可能である	-11.0617
に取組む	-11.0617
やすい応用研究	-11.0617
を効率的かつ効果的に推進する	-11.0617
を支払うこと	-11.0617
中長期的な整備方針	-11.0617
公的研究費の	-11.0617
凍	-11.0617
制度を円滑に運営する	-11.0617
医療に関する先端的研究開発及び新	-11.0617
卸売業	-11.0617
各地の研究施設	-11.0617
国勢調査	-11.0617
宣	-11.0617
年者縦断調査	-11.0617
新戦術情報処理装置	-11.0617
業務の確実	-11.0617
水銀に関する水俣条約	-11.0617
特定サービス産業	-11.0617
産業連関表	-11.0617
田	-11.0617
糖尿病	-11.0617
紙オムツ	-11.0617
農産物の輸出	-11.0617
財産を	-11.0617
供試体	-11.0617
▁Te	-11.0617
の知見や経験を	-11.0617
ンネル	-11.0617
七	-11.0617
向精神薬の	-11.0617
地方ブロック	-11.0617
干渉回避技術の	-11.0617
懇談会	-11.0617
飼料添加物	-11.0617
伴	-11.0617
窒	-11.0617
が不明な	-11.0617
IPCS	-11.0617
GSF	-11.0617
PFI	-11.0617
PPP	-11.0617
▁Industries	-11.0617
きめ細かな	-11.0617
の最大化を図る	-11.0617
アドバイザリー	-11.0617
フェロコークス	-11.0617
メンバー	-11.0617
リューション	-11.0617
ロボットテストフィールド等	-11.0617
再生医療等提供	-11.0617
合理的な意思決定	-11.0617
教育訓練を実施するために必要な	-11.0617
歩行空間	-11.0617
煙	-11.0617
特定健診等情報データベース	-11.0617
知財ビジネス評価書	-11.0617
被災地域内に設け	-11.0617
見本市	-11.0617
閉鎖性海域	-11.0617
電子航法	-11.0617
研修会等の開催	-11.0617
に係る成果の普及及び	-11.0617
の協力を得て	-11.0617
▁科学技術基本計画	-11.0618
を利用可能とするための	-11.0618
プログラミング	-11.0618
ロケット	-11.0618
一元管理	-11.0618
先行技術調査	-11.0618
棄	-11.0618
生ずる	-11.0618
目標の達成や	-11.0618
結果の公表を行って	-11.0618
見地から	-11.0618
高い周波数への移行を促進する技術	-11.0618
貸	-11.0618
を営む	-11.0618
LED	-11.0618
SOFC	-11.0618
お薬手帳	-11.0618
た河川管理の実施	-11.0618
な教育研究環境の	-11.0618
の燃費改善	-11.0618
サプライヤー	-11.0618
ティング	-11.0618
ライフサイクルコスト	-11.0618
個別化医療	-11.0618
再生医療等製品	-11.0618
地の復旧	-11.0618
次産業化	-11.0618
欧州	-11.0618
水産エコラベル認証水産物	-11.0618
焼却	-11.0618
科学技術振興のための	-11.0618
起こる	-11.0618
迅速かつ効果的な	-11.0618
利益相反	-11.0618
ディーゼル	-11.0618
施設整備に必要な経費に	-11.0618
漏えい	-11.0618
統計調査等業務	-11.0618
船員の	-11.0618
運用を開始し	-11.0618
道路運送車両法第	-11.0618
防災科学技術の水準の向上を	-11.0618
残留性有機汚染物質	-11.0618
侵襲性真菌症	-11.0618
分析法を作成し	-11.0618
厚生労働省所定の報告表	-11.0618
受療行動調査	-11.0618
子供の	-11.0618
届け出された	-11.0618
循環器病	-11.0618
房	-11.0618
支え合い	-11.0618
植物検疫	-11.0618
沖縄健康医療拠点の	-11.0618
結果を基に対策工事の計画を立案	-11.0618
調査対象事業所において	-11.0618
災害に強い社会の	-11.0618
に附帯する	-11.0618
キャンパス	-11.0618
ベンチャーキャピタル	-11.0618
周波数のひっ迫状況を	-11.0618
概況	-11.0618
次のとおり	-11.0618
理由により	-11.0618
がつながる	-11.0618
すれば大きなインパクトが期待され	-11.0618
一旦発生すると	-11.0618
低炭素型車両	-11.0618
効果的かつ効率的に	-11.0618
寸	-11.0618
政府実行計画	-11.0618
流水の正常な機能	-11.0618
私学の	-11.0618
課題を整理し	-11.0618
に係る費用に対して補助を行う	-11.0619
ツ	-11.0619
ミサイル	-11.0619
仏	-11.0619
年度当初予算	-11.0619
特措法	-11.0619
的手法を用いた	-11.0619
電子政府の総合窓口	-11.0619
を支出している	-11.0619
京	-11.0619
鮮	-11.0619
が予想され	-11.0619
コンサルタント	-11.0619
ディバイド	-11.0619
施設を利用する患者の傷病状況等	-11.0619
臭	-11.0619
通いの場	-11.0619
を続ける	-11.0619
撤	-11.0619
政府統計共同利用システム	-11.0619
使用促進のため	-11.0619
福島第一原子力発電所	-11.0619
生活の利便性の向上	-11.0619
PEFC	-11.0619
予防接種後の副反応	-11.0619
動物試験を	-11.0619
担い手への農地	-11.0619
機能を発揮	-11.062
ジビエ	-11.062
消防組織法第	-11.062
場を設ける	-11.062
エネファーム	-11.062
マイナンバー情報連携	-11.062
遺伝資源保有国	-11.062
循環型社会の形成に	-11.062
の再処理	-11.062
エッジ側で	-11.062
浜	-11.062
の業務運営に必要な	-11.0621
大学の教育研究	-11.0621
MCPD	-11.0621
が共通活用できる材料評価基盤	-11.0621
として取りまとめる	-11.0621
挑戦的な研究開発を推進	-11.0621
脂肪酸エステル類	-11.0621
の流行状況	-11.0622
各身分法に	-11.0622
規定する届出票	-11.0622
境	-11.0622
▁地球温暖化対策計画	-11.0622
佐	-11.0622
医工連携によ	-11.0622
薬剤	-11.0622
▁主要産業に	-11.0622
患者の利用状況	-11.0623
激甚化する	-11.0623
地域情報化を	-11.0623
の母集団情報	-11.0623
▁エネルギー基本計画において	-11.0624
社会経済活動の	-11.0624
を核として	-11.0624
を電子的に	-11.0624
全国の病院等	-11.0625
所要の	-11.0625
向上に寄与するため	-11.0626
基盤的な研究開発	-11.0626
が設置した	-11.0627
要件を満た	-11.0628
が参加する	-11.0628
省エネ性能の向上	-11.0629
を取りまとめる	-11.0629
国及び地方公共団体	-11.063
地域マネジメント力	-11.0631
の再編	-11.0632
学際的	-11.0633
同機構法	-11.0634
を最大限活用し	-11.0635
の一体化	-11.0637
教育機関等	-11.0638
に分け	-11.0642
運輸部門の省エネルギー	-11.0643
基準器の	-11.0644
被害を最小	-11.0644
を付与する	-11.0645
と一体となっ	-11.0646
を所管する	-11.0649
路網整備	-11.065
関する研究及び開発等の業務を	-11.0652
適正な利用環境の	-11.0655
基準等の設定	-11.0658
改革計画に基づ	-11.0677
現地日系企業	-11.068
た介護給付費明細書等	-11.0689
研究から実用化	-11.0696
の更なる強化	-11.0701
が参画する	-11.071
の市場規模	-11.0711
と比較し	-11.0721
健全性評価	-11.074
等に要する経費に対して補助	-11.0749
原因となる	-11.0757
基準を満た	-11.0784
組織運営の	-11.0811
を融合すること	-11.082
の特徴を活かし	-11.0857
地図上に	-11.0911
推進しているところであ	-11.1002
創設し	-11.1118
不可欠な	-11.1168
への反映を図ること	-11.1285
発生した際	-11.1292
医療機器等の実用化を	-11.1374
つながるような	-11.1406
の収集及び提供	-11.1473
健全性を	-11.1475
の連携の下	-11.1489
りまとめられた	-11.1676
目標達成に	-11.1683
ているところ	-11.1728
ためのシステム構築	-11.1756
に蓄積され	-11.1919
が強化され	-11.2128
畜	-11.2221
社会的役割を果た	-11.2302
薬剤耐性菌感染症の	-11.2689
の健全性	-11.2714
装置を試作	-11.2737
国際的な枠組	-11.2889
による被害の軽減に	-11.3251
を占め	-11.3329
環境の保全を図る	-11.3336
情報を全国規模	-11.357
が相対的に	-11.3638
データセンタ	-11.3715
もたらす	-11.3722
レジリエンス	-11.381
を結び	-11.3834
設立された国際	-11.3836
刻	-11.3838
へ反映する	-11.3863
明確に	-11.3893
劣	-11.3926
荷	-11.3927
全額返還	-11.3928
基金から助成	-11.3928
自動化に資する機器	-11.3929
上限総額	-11.3932
わせる	-11.3932
カルタヘナ	-11.3934
生態系の形成過程	-11.3934
需	-11.3936
必要な分担金経費を	-11.3936
フードサプライチェーン	-11.3937
宇宙産業及び科学技術	-11.3937
感染症対策としての野生鳥獣管理	-11.3937
賄	-11.3937
届	-11.3938
GHS	-11.3938
アクティブ	-11.3939
が生じた場合	-11.3939
輪	-11.3939
損なう	-11.3939
我が国が強みを持つ	-11.394
球	-11.394
の伸び	-11.394
験	-11.394
鑑	-11.394
北海道胆振東部地震	-11.394
沈	-11.394
が掲げる	-11.394
等も行って	-11.3941
ンストップサービス	-11.3941
限定的である	-11.3941
Y	-11.3941
優れた脱炭素技術等	-11.3941
光電子ハイブリッド回路技術を	-11.3941
森林に関する正確な情報の把握	-11.3941
瞬	-11.3941
構	-11.3941
KPI	-11.3942
ニホンジカ	-11.3942
交絡因子	-11.3942
科研費	-11.3942
に引き継ぐ	-11.3942
リグノ	-11.3942
愛	-11.3942
べ	-11.3942
マネージ	-11.3943
日射放射	-11.3943
地籍調査の基礎となる情報を	-11.3943
抱える諸問題の解決に向け	-11.3943
秒	-11.3943
CGIAR	-11.3944
は非常に	-11.3944
アウトリーチ活動	-11.3944
システムを柔軟に構築でき	-11.3944
照合用サンプル	-11.3944
社会から求められる	-11.3944
海洋権益の保全	-11.3944
早	-11.3944
上記事業目的	-11.3944
タイミング	-11.3944
年間を上限と	-11.3944
災害後の居住継続に関して	-11.3944
省庁横断	-11.3944
補装具	-11.3944
規模の中小企業等を会員とした団体	-11.3944
三	-11.3944
を義務付け	-11.3945
教科用特定図書等の	-11.3945
東京一極集中	-11.3945
活発化	-11.3945
産炭国	-11.3945
高磁場	-11.3945
はもとより	-11.3945
婦	-11.3945
TCFD	-11.3945
の大部分を占める	-11.3945
の関与	-11.3945
ターゲティング広告	-11.3945
プレキャスト部材の活用	-11.3945
マルチスタティック	-11.3945
地質構造調査	-11.3945
外国人観光案内所	-11.3945
天然バリアの	-11.3945
農政局	-11.3945
進められてきた	-11.3945
に積極的に参画	-11.3945
の参加を得て	-11.3945
工業所有権	-11.3945
危険物流出事故等に係る消防	-11.3945
位置付けられている	-11.3946
安心して安全に利用できる	-11.3946
簿	-11.3946
超電導	-11.3946
リテラシーの向上を図る	-11.3946
地域ブロック	-11.3946
薬剤抵抗性	-11.3946
謳	-11.3946
革新的な機能性材料	-11.3946
駅	-11.3946
必要な措置を講ずる	-11.3946
°	-11.3946
されています	-11.3946
アウトカム	-11.3946
エンフォースメント	-11.3946
モントリオ	-11.3946
中山間地	-11.3946
原子力災害時医療	-11.3946
安全環境研究所に自動車等の審査	-11.3946
審査ガイドの整備及び	-11.3946
尺	-11.3946
廃棄体	-11.3946
持続可能な形で共生する	-11.3946
月審査分	-11.3946
結果の妥当性確認手法の知見拡充	-11.3946
自動車の車体等に	-11.3946
認められた	-11.3946
身につけた	-11.3946
障害当事者参加型	-11.3946
集合住宅における	-11.3946
競	-11.3946
供給源の多様化	-11.3946
のトップランナー	-11.3946
鉱工業の科学技術に	-11.3946
噴	-11.3946
が爆発的に	-11.3947
ぞ	-11.3947
に注目	-11.3947
を認める	-11.3947
川上から川下までの	-11.3947
FDA	-11.3947
にさらされ	-11.3947
の全面的	-11.3947
の台頭によ	-11.3947
の大幅削減	-11.3947
の施設の設置及び運営	-11.3947
をベースとした	-11.3947
アルミスクラップを	-11.3947
スタディ	-11.3947
世界に通用する質の保証された	-11.3947
冠	-11.3947
原子力災害時の医療体制の	-11.3947
原子力被災者の健康	-11.3947
地球変動研究	-11.3947
堀	-11.3947
学位プログラムを構築	-11.3947
海洋保護区	-11.3947
環境基準への適合性審査に必要な	-11.3947
等の分散型エネルギーリソース	-11.3947
志	-11.3947
海洋に関する基盤的	-11.3947
として期待されている	-11.3947
に結びつく	-11.3947
バッテリー	-11.3947
応急対策	-11.3947
積み上げ	-11.3947
CIO	-11.3947
JICA	-11.3947
を両立させる	-11.3947
アグリゲーション	-11.3947
ウイルス保有状況	-11.3947
エネルギー需給構造	-11.3947
カップリング型ビジネスモデル	-11.3947
ハイブリッド	-11.3947
ユースケース	-11.3947
低温室効果	-11.3947
効果に係る計画評価手法	-11.3947
固定価格買取制度	-11.3947
家畜防疫員の	-11.3947
深地層研究施設	-11.3947
添付文書	-11.3947
石油精製業	-11.3947
研究機関との国際共同研究	-11.3947
農林業センサス	-11.3947
遺伝子組換え技術	-11.3947
フライ	-11.3947
AEA	-11.3947
アクション	-11.3947
の健康の保持	-11.3947
わが国で	-11.3947
キーテクノロジー	-11.3947
デジタル経済大臣会合	-11.3947
ベストプラクティス	-11.3947
住宅品質確保法	-11.3947
公益財団法人放射線影響研究所	-11.3947
右	-11.3947
国民生活基礎調査	-11.3947
女性の活躍推進及び両立支援	-11.3947
権利行使	-11.3947
治療方法の開発	-11.3947
認証基盤の構築	-11.3947
布	-11.3947
世	-11.3948
に依らない	-11.3948
に含まれる	-11.3948
に結び付ける	-11.3948
の所掌事務に	-11.3948
を重視し	-11.3948
ホームページにおいて公開する	-11.3948
ライフサイエンス分野	-11.3948
実況値	-11.3948
我が国の意見を反映させる	-11.3948
新市場開拓	-11.3948
時代を迎え	-11.3948
検査技師	-11.3948
注意報の	-11.3948
蓄積されてきている	-11.3948
輸入飼料価格	-11.3948
高レベル放射性廃棄物の	-11.3948
広範な	-11.3948
国際競争力を高め	-11.3948
AMED	-11.3948
が大幅に	-11.3948
プロモーション	-11.3948
世界規模での	-11.3948
単独では	-11.3948
国民生活に科学を反映浸透させる	-11.3948
社会科学から自然科学まで	-11.3948
競争的研究費	-11.3948
統計専任職員	-11.3948
研究に専念できる	-11.3948
豊かさを	-11.3948
完	-11.3948
2016-2020	-11.3948
HFSP	-11.3948
HTV	-11.3948
MEA	-11.3948
かんがい排水	-11.3948
が含まれる	-11.3948
の一体的な火山研究	-11.3948
の検査診断技術	-11.3948
の知見が不足	-11.3948
を取るための液状化ハザードマップ	-11.3948
を活用した効果的な広報	-11.3948
を迅速かつ効率的に	-11.3948
アイヌ遺骨	-11.3948
ナレッジ	-11.3948
不確実さ	-11.3948
事故模擬試験	-11.3948
人の健康を損なうおそれ	-11.3948
人的組織的要因	-11.3948
原子核	-11.3948
及ぼすおそれのある	-11.3948
商工会	-11.3948
左	-11.3948
市場シェア	-11.3948
新規化学物質の名称	-11.3948
日本版死亡データベース	-11.3948
桑	-11.3948
機密情報	-11.3948
歯科技工物	-11.3948
覆	-11.3948
規制の対象となっていない	-11.3948
規制要件の明確化	-11.3948
途上国の脱炭素社会への移行	-11.3948
遭	-11.3948
選手強化	-11.3948
鉱業権に関する登録情報	-11.3948
銅精鉱	-11.3948
評	-11.3948
却	-11.3948
の水資源開発	-11.3948
ゆ	-11.3948
サイド	-11.3948
PHV	-11.3948
によらず	-11.3948
をつくる	-11.3948
を効率的に実施するため	-11.3948
を雇用する民営事業所	-11.3948
サンプル	-11.3948
システムインテグレータ	-11.3948
ダウン	-11.3948
政府情報システムの	-11.3948
量子ビーム利用推進小委員会	-11.3948
林産物の	-11.3948
生体試料	-11.3948
×	-11.3949
いわゆる	-11.3949
が挙げられ	-11.3949
が結集する	-11.3949
しておく	-11.3949
そこから得られ	-11.3949
に大きな影響を与え	-11.3949
の多角化	-11.3949
の推移	-11.3949
ディマンドリスポンス	-11.3949
デジタル活用支援員	-11.3949
ーブル	-11.3949
上回る	-11.3949
人工バリアの	-11.3949
他省庁	-11.3949
共済事業団	-11.3949
原油の有効利用	-11.3949
幅広い粒径の土砂	-11.3949
広範な分野の研究	-11.3949
有機ケイ素	-11.3949
衰	-11.3949
重要性が増す	-11.3949
障害予防規則	-11.3949
電解質	-11.3949
飼料作物の	-11.3949
優良事例の調査	-11.3949
簡	-11.3949
と比べて	-11.3949
の業務効率化を実現	-11.3949
アクシデント	-11.3949
地震調査研究推進本部	-11.3949
広く社会に提供	-11.3949
数を獲得する等優秀な成績を収める	-11.3949
求職者雇用支援機構	-11.3949
科学技術に関する各国の研究成果	-11.3949
第十八改正日本薬局方	-11.3949
鉱物資源の安定供給確保を図る	-11.3949
に特化した	-11.3949
を守るため	-11.3949
周波数利用効率の高い	-11.3949
社会づくりに貢献する製品への買換	-11.3949
顕在化する	-11.3949
GAPIII	-11.3949
Z	-11.3949
ざ	-11.3949
に係る退職手当	-11.3949
ひ	-11.3949
まるごと	-11.3949
をつなぐための	-11.3949
エージェン	-11.3949
グローバル規模での量子暗号通信	-11.3949
ステージゲート審査を	-11.3949
プロトコールレビュー	-11.3949
公式取組	-11.3949
再エネ主力化	-11.3949
十分でない	-11.3949
原子力平和利用	-11.3949
原子炉格納容器	-11.3949
国の在職期間	-11.3949
国際自然保護連合	-11.3949
基本的事項	-11.3949
時代の到来を見据え	-11.3949
東日本大震災からの復興の基本方針	-11.3949
植物防疫等の分野	-11.3949
楽	-11.3949
民間教育訓練機関等	-11.3949
漁業経営体	-11.3949
特定外来生物	-11.3949
特許行政事務の	-11.3949
石綿による健康被害	-11.3949
穂	-11.3949
緊急的な対応	-11.3949
臓器移植	-11.3949
著作権	-11.3949
誤	-11.3949
革新的な省エネルギー技術の開発	-11.3949
風向風速を観測	-11.3949
所内試験	-11.3949
JPQR	-11.3949
tent	-11.3949
ついて補助を行い	-11.3949
に支障を来している	-11.3949
八代海	-11.3949
工期短縮	-11.3949
水生生物	-11.3949
複数年にわた	-11.3949
設置する研究所施設の整備充実を図	-11.3949
設計及び工事の方法の認可等	-11.3949
神	-11.3949
これらに関連する社会福祉の分野の	-11.3949
オセアニア	-11.3949
滑	-11.3949
Beyond	-11.395
EANET	-11.395
Intelligence	-11.395
WEB	-11.395
the	-11.395
す恐れのある	-11.395
により地球上	-11.395
の提出を求め	-11.395
の施設情報を登録した台帳	-11.395
は限界	-11.395
るレジリエント	-11.395
を交えた	-11.395
を強力に推進する	-11.395
を誰一人取り残すこと	-11.395
ネットワーク型研究拠点	-11.395
マラリア	-11.395
マーカー	-11.395
充電設備費は	-11.395
国民保健の向上	-11.395
国産濃厚飼料の	-11.395
外部に請け負わせる	-11.395
小売店等	-11.395
建造を実施する	-11.395
拡張性等を有	-11.395
改正や制度設計を行うため	-11.395
機動に引き続	-11.395
水際部の地雷原等を処理する	-11.395
現場で実現させることを目的とする	-11.395
的かつ実効的な	-11.395
的知見を得ることを目的とし	-11.395
直轄国道	-11.395
石綿ばく露防止	-11.395
石綿健康被害救済	-11.395
研究開発投資誘発効果の高い領域	-11.395
科学技術振興機構	-11.395
筑波研究学園都市	-11.395
経験年数	-11.395
肉用牛	-11.395
脚	-11.395
請負契約により	-11.395
長距離輸送	-11.395
電線共同溝の整備	-11.395
高耐熱	-11.395
価値創出のコアとなる強みを有する	-11.395
GTGS	-11.395
きめ細やかな	-11.395
ならではの	-11.395
に併せた	-11.395
を活用した海洋の利用	-11.395
ヒューマン	-11.395
ヒートポンプ	-11.395
プラグインハイブリッド自動車	-11.395
一般国道	-11.395
事情並びに経済産業政策に関する	-11.395
再発防止	-11.395
取りまとめて公表し	-11.395
多様で健全な森林	-11.395
大産業に属する常用労働者	-11.395
密着した	-11.395
海洋生分解性プラスチック	-11.395
添	-11.395
状況評価及び高経年化技術評価の	-11.395
産業競争力の強化を実現を図る	-11.395
研究開発機構の設置する	-11.395
適切な医療の確保のため	-11.395
鎮	-11.395
氷	-11.395
バイオマス利活用高度化	-11.395
Sec	-11.395
色	-11.395
の日本語版作成と	-11.395
の適正かつ効果的な運営を確保する	-11.395
実用段階に達していない	-11.395
科学研究施設等の整備	-11.395
改善に必要な設備投資等を支援する	-11.395
VOC	-11.395
ive	-11.395
kWh	-11.395
rface	-11.395
•	-11.395
▁Organi	-11.395
▁将来の戦闘機	-11.395
きゅう	-11.395
ぜ	-11.395
できるだけ早	-11.395
の応急復旧	-11.395
をおこなう	-11.395
を上限に補助	-11.395
を図ろうとする	-11.395
エネマネ	-11.395
エンジニアリング	-11.395
コストの高さや	-11.395
スタンド	-11.395
ハンズオン支援	-11.395
パンフレット	-11.395
プレイヤー	-11.395
ボイラー	-11.395
メチル水銀	-11.395
ユース	-11.395
リスクを下げ	-11.395
リーフレット	-11.395
世界最先端デジタル国家創造宣言	-11.395
中小企業等の知財活用を促進する	-11.395
人材の裾野を広げる	-11.395
会議に出席し	-11.395
公共工事の品質確保	-11.395
共同声明	-11.395
創発的研究	-11.395
労働力送り出し	-11.395
即戦力と	-11.395
回遊性魚種等	-11.395
国民健康保険中央会	-11.395
多場面	-11.395
封	-11.395
年調査から令和	-11.395
改善策を検討	-11.395
放射性廃棄物の減容化	-11.395
機能を備えた	-11.395
民主主義の	-11.395
海面水位	-11.395
満足度	-11.395
特用林産	-11.395
理事会	-11.395
生産者補給金	-11.395
砲	-11.395
社会実装拠点を核として	-11.395
空間線量率	-11.395
警報等の作成	-11.395
超微小	-11.395
車両センサーデータ	-11.395
関心と理解を深め	-11.395
を未然に防ぐため	-11.395
地域循環共生圏	-11.395
による自然生態系への影響	-11.395
時にも対応可能な天然ガス利用設備	-11.395
円滑な遂行を図るため	-11.395
Tech	-11.395
に対し補助金を交付	-11.395
を目途に	-11.395
オゾン層破壊物質	-11.395
ナビゲーション	-11.395
ユニバーサル	-11.395
不正取引	-11.395
保健医療福祉サービスに関する	-11.395
共用法に基づき登録された	-11.395
原子力利用先進国	-11.395
合同会議を開催	-11.395
国立国際医療研究センター	-11.395
地域マイクログリッド	-11.395
地球規模課題の解決に資する	-11.395
実用化された技術体系	-11.395
患者申出療養	-11.395
技術基準等の作成や	-11.395
日本スポーツ振興センター	-11.395
検査に協力する大学等	-11.395
生じ得る	-11.395
産業公害防止対策	-11.395
筑波農林研究団地	-11.395
農業の競争力強化を図る	-11.395
選挙の公	-11.395
電子署名	-11.395
豪	-11.395
▁Bed	-11.395
誌	-11.395
綱	-11.395
ASTER	-11.395
IODP	-11.395
z	-11.395
かつ効率的に実施するために必要な	-11.395
として期待される	-11.395
に代わ	-11.395
の防火性能を	-11.395
を同時実現する	-11.395
を尊重	-11.395
を核とした	-11.395
バックアップ	-11.395
フェローシップ	-11.395
モデルケースの	-11.395
ヨウ化メチル	-11.395
レアメタル	-11.395
世界知的所有権機関	-11.395
令和元年度補正予算	-11.395
作用機序	-11.395
先導的な仕組みづくり等を重視した	-11.395
加工原料乳	-11.395
厳しくなって	-11.395
及びその装置の型式指定の際に	-11.395
問わず	-11.395
国際協同研究計画	-11.395
国際機関への拠出を通じて	-11.395
国際海運からの	-11.395
多目的監視レーダ	-11.395
市場の獲得を目指す	-11.395
希少金属資源	-11.395
年次報告書	-11.395
情報を迅速に提供する	-11.395
政策的意義	-11.395
旅費を支給する	-11.395
森林施業	-11.395
浮体式洋上	-11.395
発電用施設等	-11.395
福島復興再生	-11.395
立大学附属病院の	-11.395
第三者機関	-11.395
等の趣旨に沿	-11.395
経済構造実態調査	-11.395
統計学のエキスパート	-11.395
脅威となる感染症対策関係閣僚会議	-11.395
資金配分機関	-11.395
軽労化	-11.395
農薬のリスク管理の実効性	-11.395
鉄鉱石	-11.395
黒	-11.395
cipl	-11.395
イノベー	-11.3951
地域での持続可能な物流サービスの	-11.3951
各国政府が政府会員分担金	-11.3951
円	-11.3951
HPCI	-11.3951
を束ね	-11.3951
データ利活用のための基盤を整備	-11.3951
ハイパースペクトルセンサ	-11.3951
バーチャル	-11.3951
パンデミック	-11.3951
ベースロード電源として活用	-11.3951
ローテーション	-11.3951
共通的に利用	-11.3951
利用の基盤整備を図る	-11.3951
印	-11.3951
含まれている	-11.3951
国公私立大学	-11.3951
国立循環器病研究センター	-11.3951
学校設置者	-11.3951
学習指導要領	-11.3951
手話通訳士	-11.3951
未利用エネルギー	-11.3951
梅雨時期	-11.3951
欧	-11.3951
海上における犯人の捜査及び逮捕	-11.3951
海産生物	-11.3951
益を享受する	-11.3951
賃貸借	-11.3951
輳	-11.3951
輻	-11.3951
Qua	-11.3951
が取り組んでいる	-11.3951
小規模事業者持続的発展支援事業	-11.3951
ASF	-11.3951
Power	-11.3951
World	-11.3951
▁首都直下地震	-11.3951
が不十分な	-11.3951
に限らず	-11.3951
の幅広い知見を活用	-11.3951
を先導することを目的と	-11.3951
コンステレーション	-11.3951
ハット事象を抽出する人工知能の	-11.3951
一般国民向け	-11.3951
企業活動基本調査	-11.3951
取組を総合的に支援する	-11.3951
同施設周辺の	-11.3951
国土強靱化	-11.3951
国民健康保険団体連合会	-11.3951
国際学術団体	-11.3951
国際電気通信連合	-11.3951
填	-11.3951
定員増	-11.3951
小型汎用ロボット	-11.3951
層化無作為抽出した地区における	-11.3951
弱毒化	-11.3951
慢性砒素中毒	-11.3951
目標を掲げ	-11.3951
知財マネジメントの強化	-11.3951
緊急地震速報	-11.3951
緊急支援物資輸送	-11.3951
農業知的財産管理支援機関	-11.3951
過去の降雨履歴	-11.3951
重症化予防	-11.3951
鎖	-11.3951
ASM	-11.3951
を駆使して	-11.3951
周波数のひっ迫	-11.3951
国際枠組	-11.3951
経理事務	-11.3951
保険制度の円滑な運営	-11.3951
施設整備費補助	-11.3951
が公布	-11.3951
の世界的流行	-11.3951
の同等性	-11.3951
の温室効果ガス等の観測	-11.3951
の範囲内で交付	-11.3951
コンビナート	-11.3951
パワーデバイス	-11.3951
原子力発電施設等が	-11.3951
受入れ等の	-11.3951
弁	-11.3951
排他的経済水域	-11.3951
沖合域	-11.3951
減らす	-11.3951
礁	-11.3951
科学的知見を得るための研究	-11.3951
種類程度の	-11.3951
衛生用品等	-11.3951
診療報酬改定等の	-11.3951
門	-11.3951
重ね合わせ	-11.3951
EBM	-11.3951
net	-11.3951
がんその他の悪性新生物に	-11.3951
の生産現場への	-11.3951
アイディア	-11.3951
アルコール綿等	-11.3951
オーストラリア地域	-11.3951
カンピロバクター	-11.3951
久	-11.3951
利害関係者	-11.3951
利用環境を国民に提供する	-11.3951
塩	-11.3951
宇宙天気予報	-11.3951
局所的な	-11.3951
急傾斜地崩壊対策事業	-11.3951
我が国の学術研究の水準の向上	-11.3951
手戻り	-11.3951
技術的実現可能性	-11.3951
抗生物質	-11.3951
抗菌剤の使用	-11.3951
政府開発援助	-11.3951
新学習指導要領の着実な実施	-11.3951
有明海の再生に向けた	-11.3951
森林内の放射性物質	-11.3951
漁船漁業等の	-11.3951
科学研究情報発信基盤の	-11.3951
陥	-11.3951
拠出金により支援する	-11.3951
産業用燃料電池	-11.3952
である原子力の平和的利用の促進	-11.3952
に貢献していくため	-11.3952
データの第三者提供	-11.3952
便利で	-11.3952
内航海運	-11.3952
加齢に伴	-11.3952
同法に基づき策定	-11.3952
学識経験者	-11.3952
強風に対する	-11.3952
排出量の大幅な削減	-11.3952
発生した箇所を調査	-11.3952
被用者保険の	-11.3952
顧	-11.3952
の概要	-11.3952
電波を有効に利用する	-11.3952
ERIA	-11.3952
による環境リスクの	-11.3952
をとりまく	-11.3952
ガラス	-11.3952
マグロ	-11.3952
モニター	-11.3952
世帯及び世帯員を	-11.3952
事業機会の創出	-11.3952
位置付けられた	-11.3952
係留施設	-11.3952
倣	-11.3952
博士後期課程	-11.3952
国立がん研究センター	-11.3952
国連の専門機関であ	-11.3952
学術調査官	-11.3952
建設技術研究開発助成制度	-11.3952
応募受付	-11.3952
新型コロナウイルスの感染	-11.3952
泥	-11.3952
特区制度	-11.3952
環境の整備と保全がされるように	-11.3952
礼	-11.3952
鉛	-11.3952
開発研究体制を	-11.3952
ODA	-11.3952
の二大目的	-11.3952
データ標準レイアウト	-11.3952
将来世代へ	-11.3952
沖縄科学技術大学院大学	-11.3952
海洋プラスチックごみ対策	-11.3952
空間防災システム	-11.3952
経費を措置する	-11.3952
に優れた原子力技術	-11.3952
を先行的に	-11.3952
フードバリューチェーンの構築	-11.3952
優秀な提案に対し	-11.3952
分散型エネルギーシステム構築	-11.3952
化と低消費電力化を	-11.3952
参入しやす	-11.3952
国民一人ひとり	-11.3952
年調査をもって第	-11.3952
引き出す	-11.3952
梅雨期	-11.3952
花粉発生源対策	-11.3952
計画的に推進することを目的とし	-11.3952
を一元化した	-11.3953
シカ被害対策	-11.3953
人命や財産の	-11.3953
データ駆動型	-11.3953
事業制度改正に伴うシステム改修を	-11.3953
間の短縮	-11.3953
に関する調査及び研究等	-11.3953
も視野に入れ	-11.3953
伴走コンサル	-11.3953
剖	-11.3953
果的かつ円滑に推進する	-11.3953
毒ガス弾等	-11.3953
環境媒体を経由した	-11.3953
郊	-11.3953
を設置する学校法	-11.3953
アセアン	-11.3953
フードバリューチェーン構築の	-11.3953
関係諸法規	-11.3953
に留ま	-11.3953
の協力を得ながら	-11.3953
ガレキ	-11.3953
休廃止鉱山	-11.3953
地球規模課題の解決に向けた	-11.3953
宇宙航空開発利用	-11.3953
往	-11.3953
次男女共同参画基本計画	-11.3953
相談地域プラットフォーム	-11.3953
に届け	-11.3953
気候変動枠組条約	-11.3954
これまでにない高	-11.3954
試薬を作	-11.3954
メント	-11.3954
とりわけ	-11.3954
フリー化	-11.3954
帰還困難区域等にお	-11.3954
我が国民間セクター	-11.3954
明確な開発目標	-11.3954
に伴って	-11.3954
の一元的	-11.3954
で取り組むべき	-11.3954
新型インフルエンザ等の	-11.3954
脂	-11.3954
から無作為に抽出	-11.3955
貨	-11.3955
条件下にあ	-11.3955
等で漁獲される	-11.3955
▁我が国の優れた科学技術	-11.3955
計画的かつ効率的	-11.3955
学術研究の発展に資する	-11.3956
ことが可能とな	-11.3956
注目を集めて	-11.3956
光化学オキシダント	-11.3956
による大気汚染の状況を把握	-11.3956
鍵	-11.3957
原爆放射	-11.3957
ネックとな	-11.3958
が重要な課題となってい	-11.3958
協力関係を構築	-11.3959
革新的技術の創出を	-11.396
省エネエレクトロニクス製品	-11.3961
方向性等について	-11.3961
現場が抱える課題	-11.3962
されることにな	-11.3962
に係るデータベースを構築	-11.3962
手法を提案する	-11.3963
を定量的に把握	-11.3963
立体的	-11.3965
事業計画を策定	-11.3965
我が国の優れた廃棄物	-11.3966
まで一貫し	-11.3968
資源の管理体制	-11.3968
型無人	-11.3969
松くい虫被害	-11.3969
新技術の現場実証	-11.397
障害福祉関係データ	-11.397
他分野との	-11.3972
基盤となる技術を確立す	-11.3976
新たな市場の創	-11.3976
建設生産プロセス	-11.3977
させないこ	-11.3984
推進のための基礎資料を得る	-11.399
る状況にあ	-11.4002
方策の一つと	-11.4007
適切に評価する手法	-11.4036
を着実に進める	-11.4067
大規模災害発生時に	-11.4087
上の安全及び治安の確保を図るため	-11.4107
産業技術総合研究所の	-11.416
への理解を深め	-11.4247
新たな価値の創出	-11.4251
共同利用型	-11.4266
相対的に低	-11.4268
多様な分野の産	-11.4299
に拠点を有	-11.433
おいて	-11.4356
踏まえ	-11.4363
ブロックチェーン技術の活用に	-11.4371
付近に	-11.4444
能を付与	-11.4538
信頼性を向上させ	-11.4805
技術的検証を	-11.483
な視点を	-11.4887
国内希少野生動植物種の	-11.5298
電波の安全性に関する	-11.5346
健康に及ぼす影響に	-11.572
持った我が国の	-11.583
基準への適合性	-11.5846
も必要であ	-11.5991
踏まえた戦略的	-11.6003
なければならないとされて	-11.664
明らかにすることを目的と	-11.6806
明らかにするための	-11.6932
関心が高ま	-11.7846
意識変革や行動変容に	-11.8269
や新たな価値の創	-11.8473
推進が不可欠であ	-11.848
立研究開発法人産業技術総合研究所	-11.8488
に充てるための交付金を交付する	-11.8669
目指し	-11.87
コンピュータシミュレーションに	-11.8706
介護給付費明細書	-11.8787
必要不可欠であ	-11.8825
学的知見に基づく解析を行	-11.8881
内装材等	-11.8917
や新技術の現場実	-11.8919
顕在化してい	-11.8921
薬用作物等の	-11.8922
齢	-11.8923
幅広い物流効率化の取組を促進する	-11.8925
温室効果ガス低排出発展戦略	-11.8927
木質建築資材	-11.8928
認定を受けた総合効率化計画に基づ	-11.8928
若	-11.8929
ステーションの	-11.8931
中高層建築	-11.8933
産業の成長産業化を	-11.8933
の実情に応じた	-11.8933
人道と安全保障の	-11.8934
地方公共団体所有施設	-11.8934
設備機器等の導入を支援	-11.8934
慣	-11.8935
化石燃料由来の	-11.8936
人及び野生鳥獣双方	-11.8936
酒	-11.8937
の緊密な連携	-11.8937
化学物質による労働災害	-11.8937
計画に位置付け	-11.8938
や地域の実情	-11.8938
抗たん性	-11.8939
の長期評価に関する指標策定	-11.8939
大規模噴火した火山	-11.8939
審議会で調査審議	-11.8939
検定に合格し	-11.8939
IGES	-11.894
に関する評価指標策定のための知見	-11.894
令和元年度末時点	-11.894
再評価申請資料等の信頼性	-11.894
水域における操業トラブルの防止	-11.894
国民の認識を高めること	-11.894
無作為に抽出し	-11.8941
を活用した海外展開の取組や	-11.8941
ノンファーム型接続の	-11.8941
国際湿地保全連合	-11.8941
海外知財訴訟費用保険制度	-11.8941
行政施策への導入可能性の検討	-11.8941
輸入管理を適切に行うこと	-11.8941
ステルス化	-11.8941
声	-11.8941
堅	-11.8941
カーボンフ	-11.8941
国立国会図書館	-11.8941
厚	-11.8941
各部門における省エネ	-11.8941
2016-2025」	-11.8942
スラスタ	-11.8942
バランスの取れた議論を	-11.8942
一刻も早く	-11.8942
実用的な支援機器の	-11.8942
自宅での居住継続を可能とする	-11.8942
若年層に対して地方暮らし	-11.8942
障害者自立支援機器	-11.8942
炭素社会実現に向け	-11.8942
較	-11.8943
INPIT	-11.8943
アジア地区内各国及び日本	-11.8943
オーナー	-11.8943
効果的な放流手法	-11.8943
火山噴火による降灰	-11.8943
風力発電の導入拡大	-11.8943
る情勢の変化に対し	-11.8943
効率的で的確な対策を講じ	-11.8943
沖合海底自然環境保全地域	-11.8943
多様性及び生態系サービスに関する	-11.8943
収益性の高い操業	-11.8943
自然言語処理	-11.8943
風力発電の最	-11.8944
きれいな	-11.8944
との整合性を図	-11.8944
に係る技術的知見を拡充する	-11.8944
のコンパクト化	-11.8944
の経営体の活動が見込まれる地域	-11.8944
アグリゲーター	-11.8944
ウイルス性下痢	-11.8944
データバンク事業に参加する	-11.8944
ブランディング等の取組を	-11.8944
丁	-11.8944
中小企業の知財を活用した海外展開	-11.8944
冷凍空調機器等の開発	-11.8944
卵	-11.8944
安心して暮らせる	-11.8944
寧	-11.8944
対応策を検討するため	-11.8944
技術流出に配慮し	-11.8944
文化財指定等に向けた	-11.8944
最新知見に基づく遮蔽解析コード	-11.8944
民工芸品製作者	-11.8944
燃費性能の優れた建設機械	-11.8944
直轄砂防	-11.8944
経済的に自立可能な	-11.8944
調査業務実施者が	-11.8944
府	-11.8944
!	-11.8944
維	-11.8944
然	-11.8944
地域の活力創造プラン	-11.8944
とする環境を整備することが不可欠	-11.8944
を切り拓く	-11.8944
率的な地籍調査手法の導入推進を図	-11.8944
MEDRC	-11.8944
た動力装置を搭載した	-11.8944
つ容易に利用できる仕組みの構築を	-11.8944
に関する全国悉皆的な調査を	-11.8944
の保全及び持続可能な利用	-11.8944
を総動員した	-11.8944
コンクリート工における省	-11.8944
コールドチェーン	-11.8944
サービスを迅速に開発できる	-11.8944
プレート境界	-11.8944
主権をめぐる内外発信を強化する	-11.8944
偽	-11.8944
務の一部である先行技術文献調査を	-11.8944
国内有識者の意見等を考慮し	-11.8944
型検索外注	-11.8944
持続的な食品流通モデルを実現する	-11.8944
熱中症予防策の普及啓発	-11.8944
踏	-11.8944
里	-11.8944
防止のための先進的な取り組み及び	-11.8944
科学と政策のつながりを強化	-11.8945
航空機から排出される大気汚染物質	-11.8945
Style	-11.8945
てもらうため	-11.8945
のひとつと	-11.8945
の創製とその開発期間の劇的な短縮	-11.8945
りやすさを	-11.8945
を統合的に制御する	-11.8945
アイヌ中小企業振興対策事業	-11.8945
バーチャルパワープラント	-11.8945
中西部太平洋	-11.8945
保安検査機器の整備	-11.8945
冷蔵技術等	-11.8945
効果が見込める	-11.8945
商談機会の提供	-11.8945
地元住民等の不安	-11.8945
地理的表示保護コンソーシアム	-11.8945
増進につながる技術の検討を行う	-11.8945
多数同時接続	-11.8945
対象機種拡大	-11.8945
建設の進捗に合わせ	-11.8945
我が国の薬事規制に関する研修	-11.8945
方式等の導入や出荷規格の簡素化	-11.8945
明らかになっている	-11.8945
最善のものにする	-11.8945
期中期目標期間	-11.8945
現在と今後の人口問題	-11.8945
現在及び将来における環境影響	-11.8945
生産流通構造改革	-11.8945
産品の認知度	-11.8945
科学技術の成果の社会への還元	-11.8945
航空機テロ等の防止対策に	-11.8945
規制調和に関する国際会議	-11.8945
計算やサテライト勘定の調査研究を	-11.8945
諸国等の規制当局担当者に対し	-11.8945
負荷の軽減を図るための規制や対策	-11.8945
資源量の把握に向けた	-11.8945
歯	-11.8946
がん診療連携拠点病院	-11.8946
による多言語翻訳技術の更なる高	-11.8946
より適切な交通管理を	-11.8946
等の急傾斜地崩壊	-11.8946
課題を抱える	-11.8946
亡	-11.8946
純	-11.8946
きめ細かい	-11.8946
するサービス開発コミュニティの	-11.8946
の保健福祉の向上に寄与する	-11.8946
の原石を発掘	-11.8946
の果たすべき役割	-11.8946
へとアップグレードする基盤技術	-11.8946
インターネットを介して広く提供	-11.8946
コンテナラウンドユース	-11.8946
ジェンダー間	-11.8946
マイルストーン	-11.8946
ヨ	-11.8946
丸	-11.8946
効率を飛躍的に高める	-11.8946
化学兵器禁止	-11.8946
及び飼料作物の優良な種苗の供給	-11.8946
国の有識者委員会の評価を踏まえ	-11.8946
国際的な診断助言施設	-11.8946
枝	-11.8946
皆	-11.8946
控	-11.8947
」	-11.8948
ヘ	-11.8948
岐	-11.8948
待	-11.8948
随	-11.8948
ヤ	-11.8948
五	-11.8948
伊	-11.8948
旺	-11.8948
跡	-11.8949
ユ	-11.8949
債	-11.8949
吊	-11.8949
副	-11.895
#	-11.895
┌	-11.895
└	-11.895
八	-11.895
塊	-11.895
奉	-11.895
蒸	-11.895
占	-11.895
ゅ	-11.895
α	-11.8951
冊	-11.8951
凌	-11.8951
揺	-11.8951
亜	-11.8951
吹	-11.8952
尼	-11.8952
嶺	-11.8952
灰	-11.8952
戻	-11.8952
甲	-11.8952
糖	-11.8952
雄	-11.8954
耗	-11.8955
昼	-11.8955
夜	-11.8956
樋	-11.8957
棒	-12.8533
栖	-12.8534
敗	-12.8535
披	-12.8536
悉	-12.8537
尖	-12.8538
如	-12.8539
奪	-12.854
唆	-12.8541
卒	-12.8542
勉	-12.8543
伍	-12.8544
仲	-12.8545
q	-12.8546
=	-12.8547
黄	-12.8548
餓	-12.8549
飢	-12.855
霊	-12.8551
雌	-12.8552
逼	-12.8553
逮	-12.8554
述	-12.8555
薦	-12.8556
蔬	-12.8557
聘	-12.8558
翌	-12.8559
綻	-12.856
糾	-12.8561
篤	-12.8562
禍	-12.8563
磨	-12.8564
砒	-12.8565
珠	-12.8566
潔	-12.8567
溺	-12.8568
湖	-12.8569
洩	-12.857
沼	-12.8571
柏	-12.8572
是	-12.8573
摺	-12.8574
慰	-12.8575
巨	-12.8576
峻	-12.8577
宗	-12.8578
字	-12.8579
哨	-12.858
勾	-12.8581
刑	-12.8582
凝	-12.8583
倫	-12.8584
亘	-12.8585
ヵ	-12.8586
蹄	-12.8587
襲	-12.8588
繰	-12.8589
班	-12.859
狙	-12.8591
曲	-12.8592
暫	-12.8593
斬	-12.8594
拭	-12.8595
懇	-12.8596
恐	-12.8597
快	-12.8598
廉	-12.8599
尾	-12.86
孕	-12.8601
塔	-12.8602
垣	-12.8603
喪	-12.8604
司	-12.8605
勧	-12.8606
兼	-12.8607
倉	-12.8608
乏	-12.8609
且	-12.861
酪	-12.8611
遇	-12.8612
輩	-12.8613
輝	-12.8614
趣	-12.8615
誇	-12.8616
訟	-12.8617
茨	-12.8618
艇	-12.8619
肪	-12.862
絞	-12.8621
紛	-12.8622
硬	-12.8623
父	-12.8624
瀬	-12.8625
殊	-12.8626
旦	-12.8627
撮	-12.8628
宜	-12.8629
城	-12.863
味	-12.8631
卓	-12.8632
冒	-12.8633
賦	-12.8634
蔓	-12.8635
罹	-12.8636
緻	-12.8637
粛	-12.8638
潟	-12.8639
淡	-12.864
涵	-12.8641
泉	-12.8642
梁	-12.8643
昨	-12.8644
昆	-12.8645
座	-12.8646
岡	-12.8647
妊	-12.8648
唱	-12.8649
享	-12.865
*	-12.8651
鯨	-12.8652
阪	-12.8653
酷	-12.8654
胆	-12.8655
紫	-12.8656
稚	-12.8657
百	-12.8658
涯	-12.8659
曝	-12.866
暴	-12.8661
播	-12.8662
掛	-12.8663
抵	-12.8664
惧	-12.8665
己	-12.8666
坑	-12.8667
之	-12.8668
ょ	-12.8669
頃	-12.867
隣	-12.8671
蔽	-12.8672
荒	-12.8673
筑	-12.8674
疑	-12.8675
掌	-12.8676
巧	-12.8677
妙	-12.8678
匿	-12.8679
九	-12.868
軌	-12.8681
藻	-12.8682
膨	-12.8683
肢	-12.8684
夫	-12.8685
阻	-12.8686
貧	-12.8687
誰	-12.8688
裾	-12.8689
絡	-12.869
禁	-12.8691
瞰	-12.8692
牧	-12.8693
溝	-12.8694
泊	-12.8695
殻	-12.8696
暮	-12.8697
堆	-12.8698
喚	-12.8699
僚	-12.87
俯	-12.8701
舗	-12.8702
腔	-12.8703
繁	-12.8704
粒	-12.8705
男	-12.8706
漂	-12.8707
摘	-12.8708
彰	-12.8709
匠	-12.871
刷	-12.8711
償	-12.8712
騒	-12.8713
閲	-12.8714
貴	-12.8715
罪	-12.8716
捜	-12.8717
奨	-12.8718
雷	-12.8719
督	-12.872
甚	-12.8721
郵	-12.8722
違	-12.8723
迎	-12.8724
秀	-12.8725
牽	-12.8726
渇	-12.8727
汎	-12.8728
〕	-12.8729
徹	-12.8729
兵	-12.873
克	-12.8731
遵	-12.8732
縦	-12.8733
緑	-12.8734
紹	-12.8735
慢	-12.8736
嶼	-12.8737
妨	-12.8738
央	-12.8739
靱	-12.874
脆	-12.8741
肥	-12.8742
炎	-12.8743
双	-12.8744
劇	-12.8745
写	-12.8746
須	-12.8747
購	-12.8748
訂	-12.8749
至	-12.875
看	-12.8751
犯	-12.8752
濫	-12.8753
濁	-12.8754
浄	-12.8755
氾	-12.8756
摂	-12.8757
失	-12.8758
到	-12.8759
傷	-12.876
距	-12.8761
貿	-12.8762
洪	-12.8763
昭	-12.8764
招	-12.8765
居	-12.8766
否	-12.8767
醸	-12.8768
遅	-12.8769
衆	-12.877
稼	-12.8771
浴	-12.8772
挑	-12.8773
傾	-12.8774
頻	-12.8775
浮	-12.8776
唯	-12.8777
触	-12.8778
欲	-12.8779
授	-12.878
努	-12.8781
縄	-12.8782
清	-12.8783
呼	-12.8784
透	-12.8785
背	-12.8786
契	-12.8787
栄	-12.8788
払	-12.8789
悪	-12.879
息	-12.8791
包	-12.8792
轄	-12.8793
窓	-12.8794
柔	-12.8795
擬	-12.8796
履	-12.8797
走	-12.8798
翻	-12.8799
童	-12.88
斜	-12.8801
俣	-12.8802
苗	-12.8803
胞	-12.8804
徒	-12.8805
壌	-12.8806
誘	-12.8807
渉	-12.8808
培	-12.8809
依	-12.881
豊	-12.8811
脅	-12.8812
威	-12.8813
妥	-12.8814
併	-12.8815
庭	-12.8816
博	-12.8817
締	-12.8818
濃	-12.8819
揮	-12.882
懸	-12.8821
希	-12.8822
囲	-12.8823
ゴ	-12.8824
.	-12.8825
盟	-12.8826
械	-12.8827
操	-12.8828
搭	-12.8829
挙	-12.883
詳	-12.8831
捗	-12.8832
扱	-12.8833
遂	-12.8834
花	-12.8835
箇	-12.8836
真	-12.8837
据	-12.8838
雇	-12.8839
貯	-12.884
訪	-12.8841
媒	-12.8842
去	-12.8843
ァ	-12.8844
吸	-12.8845
酬	-12.8846
躍	-12.8847
朽	-12.8848
ぼ	-12.8849
願	-12.885
績	-12.8851
掲	-12.8852
駆	-12.8853
遣	-12.8854
派	-12.8855
飼	-12.8856
還	-12.8857
申	-12.8858
慮	-12.8859
沿	-12.886
避	-12.8861
舶	-12.8862
臣	-12.8863
横	-12.8864
寿	-12.8865
募	-12.8866
侵	-12.8867
抽	-12.8868
攻	-12.8869
込	-12.887
辺	-12.8871
践	-12.8872
載	-12.8873
訓	-12.8874
殖	-12.8875
義	-12.8876
ろ	-12.8877
織	-12.8878
困	-12.8879
暖	-12.888
幹	-12.8881
池	-12.8882
脱	-12.8882
察	-12.8883
循	-12.8884
危	-12.8885
択	-12.8886
講	-12.8887
又	-12.8888
閣	-12.8889
祉	-12.889
始	-12.8891
請	-12.8892
頼	-12.8893
針	-12.8894
緊	-12.8895
般	-12.8896
程	-12.8897
星	-12.8898
律	-12.8899
複	-12.89
宙	-12.8901
宇	-12.8902
映	-12.8903
個	-12.8904
想	-12.8905
迅	-12.8906
候	-12.8907
故	-12.8908
並	-12.8909
将	-12.891
疾	-12.8911
険	-12.8912
ォ	-12.8913
容	-12.8914
善	-12.8915
参	-12.8915
患	-12.8916
託	-12.8917
催	-12.8918
審	-12.8919
告	-12.8919
争	-12.892
該	-12.8921
貢	-12.8922
障	-12.8923
ヌ	-12.8924
温	-12.8924
震	-12.8925
献	-12.8926
韓	-12.8926
洋	-12.8927
響	-12.8927
影	-12.8928
礎	-12.8929
革	-12.893
担	-12.8931
拡	-12.8932
衛	-12.8933
翼	-12.8933
綿	-12.8934
康	-12.8934
拠	-12.8935
銀	-12.8936
処	-12.8936
席	-12.8936
昇	-12.8937
ュ	-12.8937
帳	-12.8937
都	-12.8938
概	-12.8938
ェ	-12.8939
喫	-12.894
ワ	-12.894
済	-12.8941
ィ	-12.8942
浪	-12.8943
ゼ	-12.8943
把	-12.8943
紀	-12.8944
幌	-12.8944
恩	-12.8944
貫	-12.8944
握	-12.8944
削	-12.8944
族	-12.8945
令	-12.8945
措	-12.8946
眼	-12.8946
得	-12.8946
析	-12.8946
脈	-12.8947
態	-12.8947
捉	-12.8947
遠	-12.8947
錬	-12.8947
互	-12.8948
痢	-12.8948
染	-12.8948
津	-12.8949
闘	-12.8949
徴	-12.8949
展	-12.8949
擁	-12.8949
億	-12.895
舎	-12.895
札	-12.895
於	-12.895
洞	-12.895
諾	-12.895
頂	-12.895
象	-12.895
糧	-12.895
繕	-12.895
角	-12.8951
階	-12.8951
酵	-12.8951
携	-12.8951
森	-12.8952
恒	-12.8952
井	-12.8952
恵	-12.8952
栽	-12.8952
梅	-12.8952
ョ	-12.8952
災	-12.8953
啓	-12.8953
緩	-12.8954
陽	-12.8954
ど	-12.8954
似	-12.8955
づ	-12.8955
終	-12.8955
討	-12.8956
企	-12.8957
運	-12.8958
摩	-12.8959
提	-12.8959
題	-12.896
我	-12.8961
服	-12.8962
安	-12.8962
療	-12.8963
0	-12.8964
環	-12.8965
検	-12.8966
援	-12.8967
整	-12.8968
資	-12.8969
備	-12.897
報	-12.8971
進	-12.8972
術	-12.8973
松	-12.8974
究	-12.8974
