<unk>	0
<s>	0
</s>	0
、	-2.10877
の	-3.53317
。	-3.83402
・	-3.99967
を	-4.54487
等	-4.72748
や	-4.74653
▁	-4.80482
に	-4.94298
及び	-4.95642
が	-4.97541
等の	-5.24364
する	-5.50918
は	-5.51323
事業	-5.53904
と	-5.56272
し	-5.61805
における	-5.94952
による	-5.97839
に関する	-6.00783
で	-6.01405
について	-6.03751
支援	-6.04706
を行う	-6.09998
また	-6.15602
において	-6.1727
として	-6.18962
地域	-6.20285
調査	-6.24687
年	-6.24881
技術	-6.26278
補助率	-6.31794
した	-6.34739
対策	-6.35878
化	-6.36391
。・	-6.36668
平成	-6.36989
への	-6.37491
により	-6.38498
に係る	-6.3981
者	-6.48811
環境	-6.49183
2	-6.50144
施設	-6.52376
研究	-6.53161
など	-6.55846
である	-6.56738
を図る	-6.57507
その	-6.60966
から	-6.61837
的	-6.6212
管理	-6.62344
活動	-6.63081
国	-6.63853
制度	-6.63887
業務	-6.64493
3	-6.66829
情報	-6.67444
性	-6.69294
システム	-6.69494
1	-6.72251
整備	-6.74281
我が国の	-6.74317
とともに	-6.75332
国際	-6.76825
に対する	-6.77089
医療	-6.77421
法	-6.77803
評価	-6.78086
教育	-6.79389
実施	-6.81414
開発	-6.82454
な	-6.83646
ため	-6.84586
用	-6.86269
のための	-6.88289
している	-6.89617
政策	-6.90163
る	-6.90985
に必要な	-6.93618
利用	-6.93937
計画	-6.94268
に向けた	-6.95003
5	-6.96295
された	-6.97047
等を	-6.97707
を実施する	-6.97891
課題	-6.97958
産業	-6.99144
データ	-6.99252
分析	-6.99413
も	-6.99599
各	-7.00233
的な	-7.00235
を行い	-7.00759
力	-7.00995
日本	-7.01352
都道府県	-7.02698
定額	-7.0313
た	-7.04622
に資する	-7.04627
年度	-7.05646
取組	-7.0857
機関	-7.08873
推進	-7.09654
4	-7.09771
ー	-7.10106
に対して	-7.10852
い	-7.13555
社会	-7.13559
活用	-7.1509
地域の	-7.15272
水	-7.15343
こと	-7.15636
もの	-7.17181
関連	-7.18249
企業	-7.18684
地	-7.1894
研修	-7.19175
経済	-7.19252
運用	-7.19405
関係	-7.19975
て	-7.21007
の実施	-7.2187
に対し	-7.22218
新たな	-7.22274
運営	-7.22999
同	-7.23272
日	-7.24179
月	-7.25215
各種	-7.25224
を通じて	-7.25789
対応	-7.26905
かつ	-7.27302
の推進	-7.27393
当該	-7.27801
事業者	-7.28143
我が国	-7.28534
機能	-7.28562
状況	-7.2876
して	-7.29575
第	-7.29995
ことにより	-7.30754
人	-7.31162
については	-7.31732
に基づき	-7.32231
等を行う	-7.32516
又は	-7.33248
C	-7.33705
6	-7.34474
では	-7.34515
指導	-7.34976
される	-7.35234
本	-7.35378
り	-7.36784
災害	-7.36853
量	-7.37905
研究開発	-7.38873
という	-7.40252
以下	-7.40661
サービス	-7.40858
行政	-7.41074
経費	-7.41872
令和	-7.42198
中	-7.4295
所	-7.43768
連携	-7.44794
であり	-7.44834
市町村	-7.44912
体制	-7.4539
必要な	-7.45936
大	-7.47017
検討	-7.47036
施策	-7.47669
促進	-7.47991
ン	-7.48663
海外	-7.49032
基準	-7.49173
を推進する	-7.49418
基盤	-7.4947
金	-7.50051
機	-7.50146
型	-7.50309
政府	-7.50524
導入	-7.51029
ている	-7.51055
エネルギー	-7.51551
補助	-7.51601
協力	-7.51624
出	-7.51781
相談	-7.51949
生活	-7.52368
普及	-7.52752
実施する	-7.53176
の確保	-7.53412
額	-7.54064
するため	-7.54188
するとともに	-7.54889
センター	-7.55097
A	-7.55378
強化	-7.55892
審査	-7.56172
ことから	-7.56252
となる	-7.56594
を図るため	-7.56894
のため	-7.57936
の整備	-7.57985
地方公共団体	-7.58288
か	-7.58339
G	-7.58638
学	-7.59016
高	-7.59535
地方	-7.59624
的に	-7.59976
数	-7.60113
を図り	-7.60116
を支援する	-7.60604
検査	-7.60623
大学	-7.60727
新	-7.60809
することにより	-7.60821
処理	-7.60842
費	-7.61134
全国	-7.61644
確保	-7.61782
ス	-7.61884
設備	-7.62949
防災	-7.63038
試験	-7.63776
安全	-7.63968
を含む	-7.64215
での	-7.64331
会議	-7.64434
等による	-7.64471
委員会	-7.6486
向上	-7.64967
等について	-7.65031
介護	-7.65225
生産	-7.65309
被害	-7.65414
雇用	-7.65564
規制	-7.65821
農業	-7.65826
経営	-7.65902
に基づく	-7.66434
特定	-7.66556
との	-7.67485
30	-7.67525
するための	-7.6763
分野	-7.67646
手法	-7.6766
拡大	-7.67904
へ	-7.67991
からの	-7.68382
上	-7.68386
中小企業	-7.68546
並びに	-7.68573
問題	-7.68869
能力	-7.68957
健康	-7.69077
保護	-7.6926
等が	-7.69754
職員	-7.70172
措置	-7.70789
訓練	-7.71237
施設の	-7.71453
を踏まえ	-7.71494
関係者	-7.71803
防止	-7.71857
く	-7.71909
ことを目的とする	-7.71978
ネットワーク	-7.72747
を実施	-7.72868
~	-7.7306
資源	-7.73062
海	-7.73144
P	-7.73333
行う	-7.73576
体	-7.73974
学校	-7.74479
ニーズ	-7.74771
7	-7.74808
ことで	-7.74869
ための	-7.7492
できる	-7.74931
市場	-7.75103
生	-7.75282
を活用した	-7.7531
され	-7.7534
提供	-7.76279
ものである	-7.76665
後	-7.76721
S	-7.76976
-	-7.7746
これらの	-7.77945
全	-7.78038
すること	-7.78881
適切な	-7.79096
入	-7.79146
D	-7.79275
を目指す	-7.79279
都市	-7.79491
民間	-7.79935
資金	-7.80139
8	-7.80774
などの	-7.80909
改善	-7.80972
分	-7.81005
対象	-7.81102
国民	-7.8113
R	-7.81405
ト	-7.81429
I	-7.81442
国内	-7.81577
を実施し	-7.82108
スポーツ	-7.8242
E	-7.8264
国際的な	-7.8308
一	-7.83586
の維持	-7.83656
団体	-7.83761
設置	-7.83908
効果	-7.84138
等に	-7.84438
方法	-7.85049
を促進する	-7.85232
一般	-7.853
等により	-7.85439
医療機関	-7.85905
文化	-7.85907
機器	-7.86055
世界	-7.86165
T	-7.86525
の向上	-7.86593
拠点	-7.87203
事故	-7.87211
が行う	-7.87283
情報を	-7.87691
プロジェクト	-7.87806
自治体	-7.87885
号	-7.87933
事務	-7.87933
以内	-7.88284
の促進	-7.88376
、1、	-7.88451
されている	-7.89089
ル	-7.89269
交流	-7.89323
調査研究	-7.89955
20	-7.90262
障害	-7.90283
面	-7.90373
自	-7.90467
度	-7.90884
官	-7.90968
消費者	-7.91343
実証	-7.91696
に向けて	-7.91844
効果的な	-7.91908
特に	-7.92025
の取組	-7.92116
10	-7.92221
このため	-7.92363
員	-7.92586
条約	-7.92641
様々な	-7.92724
観光	-7.92923
総合	-7.93152
を有する	-7.93162
物	-7.9318
F	-7.93648
指定	-7.93733
不	-7.94035
労働	-7.94356
設計	-7.94865
内	-7.94901
前	-7.95179
合	-7.95275
等に関する	-7.95305
より	-7.95865
モデル	-7.9599
回	-7.96251
のうち	-7.96298
ており	-7.96436
ない	-7.97055
交通	-7.97438
の検討	-7.97519
、2、	-7.97523
国連	-7.97572
負担	-7.97872
ICT	-7.98504
戦略	-7.9855
専門家	-7.98583
アジア	-7.98829
派遣	-7.99112
の開発	-7.99404
人材	-7.99448
費用	-7.99469
さらに	-8.00356
更新	-8.00368
の導入	-8.00448
住宅	-8.00743
使用	-8.00842
人材育成	-8.01152
の作成	-8.01239
観測	-8.01291
別	-8.01338
間	-8.01426
者の	-8.01531
発	-8.0162
き	-8.01812
支援事業	-8.01857
率	-8.0186
委託	-8.02319
/	-8.02345
検証	-8.02424
事例	-8.02427
期	-8.02575
登録	-8.02653
需要	-8.02655
統計	-8.02744
等を実施する	-8.02752
立	-8.03073
においては	-8.03201
電子	-8.03436
緊急	-8.03562
地域における	-8.03563
福祉	-8.0363
集	-8.03679
実	-8.03997
通信	-8.04001
もって	-8.04077
県	-8.04202
う	-8.04235
開催	-8.04778
を行うとともに	-8.0501
森林	-8.05015
プログラム	-8.05255
認定	-8.05401
リスク	-8.0559
多様な	-8.05791
目標	-8.05861
知識	-8.06175
支援を行う	-8.06283
を図ることを目的とする	-8.06325
調整	-8.06331
漁業	-8.06424
イ	-8.06603
には	-8.06742
ア	-8.07347
先	-8.07739
部	-8.07792
万円	-8.07812
復興	-8.07816
分野の	-8.07851
専門	-8.07978
理	-8.08127
原子力	-8.08163
申請	-8.08225
組織	-8.08636
作業	-8.0865
9	-8.08712
AI	-8.08724
法人	-8.08908
国の	-8.09165
場	-8.09227
会	-8.09231
食品	-8.09425
機構	-8.09464
インフラ	-8.09717
国民の	-8.09887
を通じた	-8.09922
動	-8.10029
海洋	-8.10049
リ	-8.10157
28	-8.10164
i	-8.10285
本事業は	-8.1052
の構築	-8.10824
削減	-8.11023
輸出	-8.11261
成	-8.11304
O	-8.1134
等における	-8.11457
発信	-8.11712
技術開発	-8.11884
結果	-8.12116
の活用	-8.1221
科学技術	-8.12562
M	-8.1271
29	-8.1283
有	-8.12891
影響	-8.12911
広報	-8.1293
報告	-8.12931
構造	-8.13228
感染症	-8.1352
とする	-8.13522
時	-8.13691
作成	-8.14078
することで	-8.14333
を対象に	-8.14602
特別	-8.14642
これら	-8.14776
内容	-8.14965
情報収集	-8.14981
え	-8.15053
維持	-8.15714
国際機関	-8.15788
動向	-8.15874
医師	-8.16165
によって	-8.16175
患者	-8.16237
効率的な	-8.16819
障害者	-8.1716
重要	-8.17554
の普及	-8.17716
局	-8.1844
e	-8.18528
を行っている	-8.18792
に伴う	-8.19016
重要な	-8.19124
を整備する	-8.19381
建設	-8.19384
間の	-8.19531
情報提供	-8.19562
事	-8.19575
予算	-8.19938
約	-8.20526
供給	-8.20618
シ	-8.20855
B	-8.21277
構築	-8.21555
復旧	-8.21649
輸送	-8.21767
会合	-8.2194
外	-8.22089
書	-8.2217
ラ	-8.22291
下	-8.226
原	-8.22687
自動車	-8.22723
ほか	-8.22861
上の	-8.22937
日本の	-8.23134
投資	-8.23183
航空	-8.2319
ま	-8.23243
現地	-8.23444
を進める	-8.23924
道路	-8.24154
全国の	-8.24418
種	-8.24448
再生	-8.24502
L	-8.24592
資料	-8.24894
共同	-8.24922
知見	-8.25402
地震	-8.25589
に取り組む	-8.258
公	-8.25844
議論	-8.26305
分野における	-8.26555
業	-8.27282
れ	-8.27455
国が	-8.27555
予防	-8.27556
の強化	-8.28064
決定	-8.28068
外国人	-8.28073
工事	-8.28093
収集	-8.28312
環境整備	-8.28483
流通	-8.28583
工	-8.28913
質	-8.29115
取得	-8.29283
を踏まえた	-8.29336
を図るとともに	-8.29395
長	-8.29455
させ	-8.29458
展開	-8.29468
発展	-8.29494
H	-8.2953
本事業では	-8.29609
す	-8.29958
庁	-8.3014
に貢献する	-8.30153
を実現する	-8.30184
労働者	-8.30432
CO	-8.30947
基金	-8.31104
この	-8.3129
保険	-8.31456
、1/2	-8.31488
改修	-8.31569
製造	-8.3158
育成	-8.31734
期間	-8.3176
行	-8.31779
各国	-8.31885
のある	-8.32349
医薬品	-8.32453
上で	-8.3264
等への	-8.32724
啓発	-8.33063
次	-8.33068
12	-8.33254
ク	-8.33279
方	-8.33392
ところ	-8.33563
以下の	-8.33654
N	-8.33678
過	-8.33682
治療	-8.33713
産	-8.33728
を通じ	-8.34239
主体	-8.34263
に要する経費	-8.34557
通	-8.34608
被災	-8.34773
保	-8.34939
み	-8.3537
振興	-8.35548
必要がある	-8.35548
取	-8.35767
女性	-8.35787
27	-8.36007
場合	-8.36302
なお	-8.3668
自立	-8.36728
確認	-8.37105
を確保する	-8.37137
が実施する	-8.37202
見	-8.37414
の実現	-8.37569
情報発信	-8.3761
点	-8.37851
に向け	-8.37936
診療	-8.38513
レ	-8.38518
に伴い	-8.38575
データベース	-8.38586
国家	-8.38636
がある	-8.3878
形成	-8.38911
セミナー	-8.39099
後の	-8.39295
保全	-8.39387
の活動	-8.39561
省エネ	-8.39683
援助	-8.39691
普及啓発	-8.39693
車両	-8.39701
国内外の	-8.39827
再	-8.39981
多	-8.40092
時間	-8.40358
今後	-8.40497
イノベーション	-8.40766
といった	-8.40817
総合的な	-8.40993
協議会	-8.41126
の改善	-8.41251
解析	-8.41405
保健	-8.41463
を行うことにより	-8.41512
共有	-8.41661
金融	-8.41937
価格	-8.41967
事項	-8.41967
性能	-8.42059
年度から	-8.42174
発生	-8.42404
林業	-8.42508
監視	-8.42511
防衛	-8.42731
施設整備	-8.42862
これ	-8.42873
解決	-8.42931
土地	-8.43037
材料	-8.43131
策定	-8.43141
つ	-8.43504
類	-8.43592
事務局	-8.43618
助言	-8.4369
交付金	-8.43768
その他の	-8.43814
への対応	-8.44052
子	-8.44233
助成	-8.44237
航空機	-8.44442
を推進するため	-8.44575
ために	-8.44639
成果	-8.44809
経験	-8.44869
フ	-8.44976
品	-8.45148
カ	-8.4537
となっている	-8.45383
取引	-8.45433
まで	-8.45609
今後の	-8.45911
基礎	-8.45946
技能	-8.46086
技術の	-8.461
の設置	-8.46108
1/2、	-8.46228
等に対する	-8.46308
の高度化	-8.46412
等において	-8.46442
他	-8.46519
周知	-8.46536
診断	-8.46596
式	-8.46622
石油	-8.46634
t	-8.46649
ことが	-8.46853
1/2	-8.46901
就職	-8.4697
諸	-8.47049
広域	-8.47107
整理	-8.47109
報告書	-8.47284
定	-8.47304
にかかる	-8.47444
調達	-8.47693
主	-8.47702
科学	-8.47735
廃棄物	-8.47806
自然	-8.47829
義務	-8.4786
可能な	-8.47897
実態	-8.48394
病院	-8.48433
条件	-8.48443
法第	-8.48446
モニタリング	-8.48464
給付	-8.48647
食	-8.48956
車	-8.49072
J	-8.49081
改革	-8.49112
変化	-8.4915
拠出	-8.49328
有識者	-8.49693
具体的には	-8.49708
参加	-8.50059
を受け	-8.50126
ガイドライン	-8.50287
公共	-8.50416
の充実	-8.50709
に向けた取組	-8.5075
月に	-8.50963
の策定	-8.5104
26	-8.51055
就労	-8.51188
を活用し	-8.51283
手	-8.51368
実現	-8.5158
等に係る	-8.51596
目	-8.51599
年に	-8.52062
実践	-8.52112
に寄与する	-8.52139
以上	-8.52165
の運営	-8.52211
制度の	-8.52304
税	-8.52344
を強化する	-8.52439
害	-8.52684
年度に	-8.53016
目的	-8.53389
理解	-8.53421
観点から	-8.53479
気候変動	-8.53489
加工	-8.53513
つつ	-8.53603
させる	-8.53627
個人	-8.53691
協議	-8.53766
機会	-8.53815
長期	-8.54142
を支える	-8.54186
年金	-8.5434
増	-8.54661
を支援	-8.54692
ち	-8.54745
を担う	-8.54775
港湾	-8.54782
執行	-8.54784
物流	-8.54784
対	-8.55318
統合	-8.5534
情報の	-8.55425
貿易	-8.55426
販売	-8.5543
財政	-8.55558
24	-8.55634
デジタル	-8.55904
に応じて	-8.55921
改正	-8.55961
農	-8.56081
公表	-8.56373
研究者	-8.56523
基本計画	-8.56671
避難	-8.56693
当	-8.56696
在	-8.57274
重	-8.57327
a	-8.57402
IT	-8.57419
との連携	-8.57434
警察	-8.57535
学生	-8.57821
の高い	-8.57965
。2。	-8.57971
等を行い	-8.58007
料	-8.58047
生物	-8.58049
犯罪	-8.58094
必要	-8.58097
受	-8.58106
の拡大	-8.5813
しており	-8.58143
事業主	-8.58417
25	-8.58437
効率的に	-8.586
正	-8.58652
名	-8.58755
新規	-8.58784
を推進し	-8.58815
拠出金	-8.58818
関係機関	-8.58936
その他	-8.59064
等を通じて	-8.59272
次世代	-8.59458
を確保するため	-8.59567
上げ	-8.59587
安定	-8.59624
立案	-8.59642
することを目的とする	-8.59655
を促進し	-8.5972
施設の整備	-8.59744
現	-8.59898
インターネット	-8.60128
施行	-8.60134
空間	-8.60299
道	-8.60442
将来	-8.60495
効率化	-8.60833
就業	-8.60897
農地	-8.60898
の防止	-8.61262
を実施している	-8.61514
ガス	-8.61536
った	-8.61686
ビジネス	-8.61946
め	-8.61969
利活用	-8.61989
低	-8.61992
に応じた	-8.62126
できるよう	-8.62143
装置	-8.62227
推進事業	-8.62422
19	-8.62653
等を実施	-8.62737
高齢者	-8.62926
部品	-8.62962
適用	-8.62968
継続	-8.6302
ジ	-8.63294
に関する調査	-8.63323
条	-8.63327
標準	-8.63344
小	-8.63382
充実	-8.63558
実態調査	-8.63579
W	-8.63614
ASEAN	-8.63614
意識	-8.63627
公開	-8.63637
国土	-8.63726
方策	-8.63738
優れた	-8.63749
年間	-8.64032
米	-8.64081
しつつ	-8.64099
製品	-8.64327
戦	-8.64333
部隊	-8.64415
ロ	-8.64451
相互	-8.64543
職業	-8.64685
訪問	-8.64791
事業所	-8.64802
コスト	-8.65026
準備	-8.65061
蓄積	-8.65062
系	-8.65249
U	-8.65343
づくり	-8.65439
諸国	-8.65599
核	-8.65711
に必要な経費	-8.65729
わ	-8.65731
労	-8.65784
プロセス	-8.65785
放送	-8.65801
2020	-8.65862
の安定	-8.65917
対処	-8.66055
元	-8.66057
収	-8.66373
持続可能な	-8.66396
感染	-8.664
非	-8.66488
修理	-8.66539
現場	-8.66731
そのため	-8.66967
の調査	-8.67217
ノウハウ	-8.67246
庁舎	-8.67276
の把握	-8.67735
未	-8.67878
マ	-8.67961
島	-8.67969
地方自治体	-8.68102
交付	-8.68103
研究機関	-8.68146
物質	-8.68166
民	-8.68211
衛星	-8.68237
広く	-8.68512
令和元年度	-8.68528
のために	-8.68532
除	-8.68573
テ	-8.68666
OECD	-8.68736
不足	-8.68739
点検	-8.68751
学習	-8.68758
線	-8.688
共通	-8.68936
としての	-8.69022
に資することを目的とする	-8.69068
技術的	-8.6909
。1。	-8.69151
空	-8.69261
手続	-8.69417
安全保障	-8.69423
病	-8.69432
V	-8.69443
遂行	-8.69481
汚染	-8.69488
認証	-8.69488
状態	-8.69492
を活用して	-8.7
電	-8.70031
等に対して	-8.70082
付	-8.70141
の支援	-8.70175
独立行政法人	-8.70232
児童	-8.70239
ず	-8.70243
グ	-8.70245
移転	-8.70252
維持管理	-8.70259
人口	-8.70279
具体的な	-8.70293
地区	-8.70349
向け	-8.70432
定額補助	-8.70447
等で	-8.70598
け	-8.70694
薬	-8.70862
に資するため	-8.70877
加	-8.70909
層	-8.70966
装備品	-8.71
契約	-8.71008
安全性	-8.71052
においても	-8.71122
既存	-8.71388
創出	-8.71523
事業を実施する	-8.71667
こ	-8.71706
SDGs	-8.71776
体験	-8.71777
現在	-8.71799
林	-8.71817
に関して	-8.71841
システムの	-8.71889
社会的	-8.71913
特	-8.72375
市	-8.72475
着	-8.72531
ド	-8.72683
に対応した	-8.73106
の育成	-8.73108
の状況	-8.73139
疾病	-8.73332
放射線	-8.7334
予測	-8.73343
の観点から	-8.734
にも	-8.73534
を目的とする	-8.73718
を受けた	-8.73793
及びその	-8.73928
を用いた	-8.74124
を検討する	-8.74131
アフリカ	-8.74132
輸入	-8.74137
の開催	-8.74155
医	-8.74242
予定	-8.74258
消費	-8.74379
報	-8.7461
気象	-8.74885
課	-8.7492
移動	-8.74929
本部	-8.7505
研究所	-8.75156
個別	-8.75176
、3、	-8.75247
代	-8.75463
加盟国	-8.75622
減	-8.75688
河川	-8.75723
電波	-8.75724
の発生	-8.75757
を設置し	-8.75996
の効率化	-8.76025
の形成	-8.76147
本事業	-8.76174
内の	-8.76188
老朽化	-8.76343
情勢	-8.76519
プラットフォーム	-8.76521
の下	-8.76735
住民	-8.76966
に対応するため	-8.77027
の創出	-8.77259
発揮	-8.77332
融資	-8.77334
デ	-8.77335
s	-8.77339
器材	-8.77355
をはじめとする	-8.77363
体制の整備	-8.77557
我が国が	-8.77798
課題解決	-8.77861
適正な	-8.77888
平和	-8.78046
業者	-8.78046
の確立	-8.78051
被災した	-8.78076
利用者	-8.78084
深	-8.78131
測定	-8.7816
コンテンツ	-8.78161
保存	-8.78176
医療機器	-8.7826
情報システム	-8.78303
環境の整備	-8.78327
流	-8.78725
を行うこと	-8.78857
に関し	-8.78914
養成	-8.78959
せ	-8.78966
機械	-8.7898
を対象とした	-8.79426
陸	-8.79439
要	-8.79565
我が国は	-8.79574
を整備し	-8.7961
信頼性	-8.79657
無	-8.79702
明	-8.79746
支給	-8.79837
文化財	-8.79932
の利用	-8.79969
15	-8.80365
最新の	-8.80378
衛生	-8.80381
国内の	-8.80424
段階	-8.80435
権	-8.8055
効果的	-8.80561
密	-8.80701
人権	-8.80719
可能性	-8.80774
競争	-8.80828
小規模事業者	-8.80901
の安全	-8.80957
していく	-8.80988
一部	-8.81146
各国の	-8.8121
官民	-8.81277
労働者の	-8.81305
がん	-8.81405
られる	-8.81488
方針	-8.81495
耐	-8.81507
国際社会	-8.81582
国立	-8.81771
増進	-8.8196
実施主体	-8.82201
精神	-8.82218
の円滑な	-8.82225
送	-8.82278
器	-8.82291
源	-8.82325
総	-8.82796
助	-8.83157
回復	-8.83157
割	-8.8317
燃料	-8.83179
ブ	-8.83186
協定	-8.83204
価値	-8.83218
分担金	-8.83218
提案	-8.83228
そ	-8.83238
それ	-8.83649
000	-8.83734
士	-8.84016
補	-8.84025
さ	-8.84039
o	-8.84068
幅広い	-8.84084
サ	-8.84096
定着	-8.841
リサイクル	-8.84107
上記	-8.84111
のあり方	-8.84341
主要	-8.84597
補助金	-8.8482
船	-8.8491
世帯	-8.84963
家庭	-8.84964
省	-8.8497
改良	-8.84973
を実現するため	-8.84985
を高める	-8.85145
船舶	-8.85151
を促進するため	-8.85158
ような	-8.85171
を構築し	-8.85195
行動	-8.85266
を実施するとともに	-8.85334
生産性向上	-8.85419
設定	-8.85487
土	-8.85572
を可能とする	-8.85667
実験	-8.85749
を確保し	-8.85751
路	-8.85753
規定	-8.85764
パ	-8.85846
程度	-8.85856
鉄道	-8.85864
られた	-8.85877
見直し	-8.8588
団	-8.85882
一体	-8.85929
策	-8.8595
よう	-8.85977
への支援	-8.86178
大規模	-8.86237
高度	-8.86514
エ	-8.86556
取り組み	-8.86583
に加え	-8.86596
職	-8.86598
オンライン	-8.86743
指針	-8.86745
基幹	-8.86748
法に基づく	-8.86766
福島県	-8.86766
保管	-8.86776
の管理	-8.8678
までの	-8.8691
務	-8.87206
進	-8.87467
留	-8.87556
配	-8.87563
創造	-8.876
を開催する	-8.8762
細	-8.87655
教員	-8.87682
ん	-8.87745
提供する	-8.87784
技術の開発	-8.87892
情報共有	-8.8805
区域	-8.88099
者が	-8.88324
円滑な	-8.88442
製	-8.88514
テーマ	-8.88555
を支援し	-8.88677
ら	-8.88712
これまで	-8.8877
他の	-8.8903
企業の	-8.89173
って	-8.89176
データを	-8.8932
を適切に	-8.89354
科	-8.89447
子ども	-8.89464
関心	-8.89474
ワクチン	-8.89476
すべき	-8.89481
毎年	-8.89519
体制整備	-8.89653
の更なる	-8.89667
安定的な	-8.89922
についての	-8.89926
水道	-8.89968
必要となる	-8.90052
検討を行う	-8.90064
達成	-8.90134
を実施することにより	-8.90135
管	-8.90263
意	-8.90326
歯科	-8.90363
活性化	-8.90391
全体の	-8.90395
指標	-8.90401
電力	-8.90498
の保全	-8.90577
熱	-8.90875
場合に	-8.91012
を行うことで	-8.91016
時の	-8.91051
増加	-8.91125
となった	-8.91328
大学等	-8.9134
発電	-8.9134
補助対象	-8.91362
大会	-8.91421
早期	-8.91612
規模	-8.91808
化学物質	-8.92017
の発展	-8.92238
箇所	-8.92277
空港	-8.92278
需給	-8.92282
受入	-8.92323
運転	-8.92336
中核	-8.92339
を開催し	-8.92352
を得る	-8.92432
多くの	-8.92564
新型コロナウイルス感染症	-8.92648
高度化	-8.92908
の変化	-8.93009
中で	-8.93136
起	-8.93178
ム	-8.93228
を促す	-8.93229
直接	-8.93233
困難	-8.93237
搭載	-8.93239
実績	-8.93243
条第	-8.93317
レベル	-8.93413
一定の	-8.93583
に必要となる	-8.93605
の増加	-8.93631
支援する	-8.93688
水準	-8.93745
強	-8.93789
作	-8.93951
常	-8.93967
案	-8.93991
役割	-8.94136
に関する調査研究	-8.94174
ながら	-8.94176
産地	-8.94189
中央	-8.94191
会社	-8.94214
23	-8.94245
案件	-8.94274
法令	-8.94425
校	-8.9458
の安定供給	-8.94717
を作成する	-8.94722
外交	-8.94915
途上国	-8.95055
の評価	-8.95062
容	-8.95106
廃	-8.95148
処分	-8.95162
側	-8.95164
を対象として	-8.95188
現状	-8.95704
にある	-8.95888
来	-8.9607
ター	-8.96136
再生可能エネルギー	-8.96139
判断	-8.96142
ある	-8.96308
の運用	-8.96653
を行うための	-8.96732
セキュリティ	-8.96852
近	-8.96879
各都道府県	-8.96883
家	-8.96889
気	-8.97051
養	-8.97076
n	-8.97092
独	-8.97116
部門	-8.97118
イベント	-8.97135
高等学校	-8.97145
法律	-8.97293
実施している	-8.97341
地域において	-8.97491
31	-8.97655
集約	-8.97802
民間企業	-8.97861
特性	-8.97894
を構築する	-8.97917
分の	-8.97921
集計	-8.97955
参画	-8.97958
排出	-8.98039
ロボット	-8.98108
資格	-8.98128
昭和	-8.98135
併せて	-8.98141
自衛隊	-8.98408
ること	-8.98412
締約国	-8.98483
の在り方	-8.98683
経	-8.98785
文	-8.98937
情報通信	-8.9896
支	-8.99044
域	-8.99058
を作成し	-8.99077
大臣	-8.99114
居住	-8.99124
不動産	-8.9913
室	-8.99133
回収	-8.99195
高度な	-8.99261
につながる	-8.99263
▁平成	-8.99326
の実態	-8.99357
厚生労働省	-8.99408
ことを目的としている	-8.99509
21	-8.99766
2/3	-8.99781
の一部	-8.99853
するもの	-8.9989
開始	-8.99928
推進する	-8.99995
構成	-9.0004
看護	-9.00045
対話	-9.00063
オ	-9.00126
表示	-9.00135
緩和	-9.00164
高齢化	-9.00275
続	-9.00337
11	-9.00546
するために	-9.00615
産業の	-9.00702
技術を	-9.00714
なく	-9.0105
国際協力	-9.01064
精度	-9.01167
ウ	-9.01184
IoT	-9.01187
国立研究開発法人	-9.01204
に関する法律	-9.01226
える	-9.01241
を含めた	-9.01245
課題の解決	-9.0132
強化を図る	-9.01362
を提供する	-9.01503
ていく	-9.01586
IC	-9.01599
円滑に	-9.01998
テロ	-9.0208
表	-9.02153
項	-9.02181
成長	-9.02183
登記	-9.02234
生態系	-9.02239
グループ	-9.02243
中国	-9.02271
省エネルギー	-9.02292
動物	-9.02326
、1/2、	-9.02535
可能	-9.02776
の適切な	-9.03016
取り	-9.03093
マッチング	-9.03119
外部	-9.03143
全体	-9.03148
選定	-9.03153
使	-9.0318
配布	-9.03274
風	-9.0328
こうした	-9.03286
変更	-9.03293
ット	-9.03297
競技	-9.03298
離島	-9.03314
当局	-9.03335
2019	-9.03348
補助を行う	-9.03376
立地	-9.03505
施設等	-9.03576
令和元年	-9.0377
高い	-9.03808
法に基づき	-9.03933
にとって	-9.04259
山	-9.04333
任務	-9.04336
家族	-9.04344
交渉	-9.04347
手段	-9.04351
補償	-9.04365
協会	-9.04366
品質	-9.04373
位	-9.04433
事務所	-9.04539
の保護	-9.04625
設備の	-9.04718
定める	-9.04802
低減	-9.04833
漁業者	-9.04872
担当者	-9.04913
重点	-9.04919
じ	-9.04976
機動	-9.05144
企業等	-9.05416
サポート	-9.05417
天	-9.05424
および	-9.05429
未来	-9.05447
食料	-9.05465
活動の	-9.05483
要因	-9.05708
米国	-9.05709
児	-9.05803
既存の	-9.05967
基盤整備	-9.05982
の円滑化	-9.06009
例	-9.06089
グローバル	-9.06183
保険料	-9.06323
マネジメント	-9.06517
職場	-9.06548
対象者	-9.06596
100	-9.06711
1/3	-9.06753
ためには	-9.06896
等の整備	-9.06932
等を行うことにより	-9.06968
の減少	-9.07026
地域住民	-9.07138
検討会	-9.07234
あ	-9.07327
ことができる	-9.07343
公的	-9.07499
修	-9.075
講習	-9.07535
を行った	-9.07596
APEC	-9.07605
14	-9.07608
習得	-9.07619
手当	-9.07644
防衛省	-9.07649
を目的とした	-9.07787
安心	-9.07895
最	-9.08207
木材	-9.08712
知財	-9.08725
児童生徒	-9.08734
要件	-9.08742
低下	-9.08762
迅速かつ	-9.08771
人材の育成	-9.08801
等から	-9.08921
連	-9.09201
を円滑に	-9.09302
が必要な	-9.09654
万	-9.09729
の進展	-9.09771
事業者の	-9.09784
提出	-9.09788
世代	-9.09829
周波数	-9.09857
届出	-9.0987
軽減	-9.09897
の復旧	-9.10032
事業費	-9.10062
の検証	-9.10094
海外の	-9.10134
保育	-9.10329
利	-9.10454
複数の	-9.10513
50	-9.10669
材	-9.10737
周辺	-9.10799
検	-9.10863
油	-9.10932
再エネ	-9.10955
東京	-9.10961
主導	-9.10963
l	-9.10964
ダ	-9.10971
ます	-9.1102
自ら	-9.11024
上限	-9.1103
等を支援する	-9.11276
安全確保	-9.11372
の活性化	-9.11444
1/3、	-9.11495
担当	-9.11518
に対応する	-9.11785
を補助する	-9.11899
々	-9.11902
▁我が国の	-9.11967
ナ	-9.1203
▁本事業は	-9.12108
館	-9.12127
便	-9.12127
消防	-9.12144
める	-9.12173
日本語	-9.1219
万人	-9.12212
の重要性	-9.12263
IS	-9.12281
医療費	-9.12292
事業の実施	-9.1239
放射性物質	-9.1262
継続的に	-9.12712
学術	-9.12825
経済的	-9.13207
社	-9.13213
価	-9.13217
休	-9.13258
メ	-9.13265
大きな	-9.13273
協働	-9.13282
のみならず	-9.13287
備蓄	-9.13295
を維持	-9.13297
文部科学省	-9.13302
施工	-9.13304
取りまとめ	-9.13334
体制の構築	-9.13441
が困難な	-9.13588
標準化	-9.13638
ことを目的として	-9.13718
新たに	-9.13861
るため	-9.13964
r	-9.1397
の動向	-9.13981
置	-9.14086
ことを	-9.14128
活	-9.14284
限	-9.14305
行為	-9.1446
ルール	-9.14491
農林水産物	-9.14492
造成	-9.14496
実証事業	-9.14535
を図るための	-9.14601
中小	-9.14635
世界の	-9.14983
我が国における	-9.15073
取組を	-9.15075
を把握する	-9.1516
際	-9.15161
調査結果	-9.15298
等を踏まえ	-9.15363
身	-9.15405
積	-9.15593
旧	-9.15649
保安	-9.15658
ツール	-9.15668
追加	-9.1567
意見	-9.1568
連絡	-9.15691
被害者	-9.15703
の一層の	-9.15739
信頼	-9.15894
バ	-9.15958
貸付	-9.16079
地方公共団体が	-9.16149
等を実施し	-9.16466
取組を支援	-9.16505
等の実施	-9.16549
基本	-9.16704
事業の	-9.1682
終了	-9.1686
獲得	-9.16863
承認	-9.16866
を用いて	-9.16869
の生産	-9.16875
地方公共団体等	-9.16881
項目	-9.16894
抑制	-9.16897
中の	-9.17013
海上	-9.17041
東アジア	-9.1707
農業者	-9.17084
効率的	-9.17114
年度より	-9.17158
際の	-9.17244
付け	-9.17277
させるため	-9.173
被災者	-9.17323
組合	-9.175
図	-9.17772
観	-9.18051
被	-9.18054
の見直し	-9.18058
計上	-9.18082
保守	-9.18085
相手国	-9.18087
スタートアップ	-9.18088
療養	-9.18106
安全対策	-9.1813
受入れ	-9.18141
活躍	-9.18179
に寄与することを目的とする	-9.18179
加速	-9.18221
金融機関	-9.18237
能力向上	-9.18278
国際会議	-9.18382
形	-9.18485
げ	-9.19023
国民生活	-9.1904
とした	-9.19085
育	-9.19129
支払	-9.19211
隊	-9.19251
自然災害	-9.19269
台風	-9.19315
無線	-9.19319
フォーラム	-9.19319
サイト	-9.19321
津波	-9.19324
選挙	-9.19324
制御	-9.19325
求職者	-9.19327
代替	-9.19328
商品	-9.19328
引き続き	-9.19329
新技術	-9.19361
時代	-9.19369
の安全性	-9.19373
方式	-9.19376
多様化	-9.19395
農林水産業	-9.19464
の取得	-9.1955
型の	-9.19725
防止対策	-9.19735
日本人	-9.2028
統計調査	-9.20314
計	-9.20349
の早期	-9.20386
建築物	-9.20388
10/10	-9.20466
提言	-9.20476
国際的	-9.20499
間で	-9.20508
建築	-9.20522
プラン	-9.20529
木	-9.20529
要請	-9.20551
免許	-9.20565
死亡	-9.20568
領域	-9.20583
適応	-9.20583
保証	-9.20587
予防接種	-9.2059
被災地	-9.2059
講習会	-9.20591
集積	-9.20605
に関連する	-9.20689
を行うため	-9.20703
者に対し	-9.20738
サービスの	-9.20754
高速	-9.20771
患者の	-9.20806
システムを	-9.20846
調査票	-9.20898
近年	-9.21085
事業者が	-9.21089
コ	-9.21127
の適正な	-9.21134
でも	-9.21171
13	-9.21174
減少	-9.21245
適	-9.2126
分析し	-9.21323
安全な	-9.21386
科学的	-9.2143
等に対し	-9.21544
の場	-9.21604
資	-9.21668
配置	-9.21735
口	-9.21742
以上の	-9.21799
ック	-9.21815
家畜	-9.21821
コミュニティ	-9.21831
総務省	-9.21834
規格	-9.21839
ごとに	-9.21843
原因	-9.21848
記録	-9.21849
質の高い	-9.21858
迅速な	-9.21948
を支援することにより	-9.22273
アジア太平洋地域	-9.22342
実施し	-9.22458
タ	-9.2263
を図ること	-9.2278
更なる	-9.22852
を高め	-9.22857
に対応し	-9.22867
c	-9.2296
給	-9.22968
を目指し	-9.23032
行政機関	-9.23075
伝	-9.23083
状	-9.23083
ビ	-9.23088
親	-9.23112
ハ	-9.23117
サプライチェーン	-9.23121
監査	-9.23125
防護	-9.23133
の機能	-9.23162
文書	-9.23162
られている	-9.23165
を進め	-9.23287
以外の	-9.23297
につなげる	-9.23313
ッ	-9.23527
環境を整備する	-9.23555
情報の収集	-9.23744
が高い	-9.24132
生物多様性	-9.24338
有害	-9.24359
護	-9.24376
ホームページ	-9.24413
構想	-9.24413
遠隔	-9.24421
捜査	-9.24422
級	-9.24423
所得	-9.2444
研究成果	-9.24623
に関する研究	-9.2469
受け入れ	-9.24741
を目的として	-9.2477
を把握し	-9.2483
実務	-9.24832
の提供	-9.24943
を受ける	-9.24959
緊急時	-9.24977
を図ることにより	-9.25264
の収集	-9.25324
網	-9.25493
機器の	-9.25513
障害者の	-9.25536
施策の	-9.25561
国として	-9.25601
地方公共団体の	-9.25658
機能を	-9.2566
存	-9.25685
急	-9.2569
差	-9.2571
債務	-9.25728
徹底	-9.25733
二国間	-9.25733
根	-9.25736
魚	-9.25741
武器	-9.25744
採用	-9.25768
水産物	-9.25773
者に対して	-9.25843
将来の	-9.26092
専門的な	-9.26107
民間事業者	-9.26164
の業務	-9.26213
実用化	-9.26214
教育訓練	-9.26279
等の取組	-9.26329
際に	-9.26383
迅速	-9.26421
。3。	-9.26513
の支給	-9.26557
者に対する	-9.26797
ール	-9.26801
ことができるよう	-9.26872
するものである	-9.26877
意見交換	-9.26919
売	-9.27043
選	-9.27045
引き	-9.27061
新しい	-9.27065
死	-9.27065
と共に	-9.27068
K	-9.27073
国立公園	-9.27074
集中	-9.27219
2/3、	-9.27283
加えて	-9.27291
られ	-9.27377
事業場	-9.27402
知	-9.27438
が必要である	-9.27584
できない	-9.27696
状況等	-9.27772
10/10、	-9.28074
受け	-9.28087
防	-9.28251
従事者	-9.28303
組	-9.2832
精	-9.28377
をはじめ	-9.28378
当該事業	-9.28384
IAEA	-9.28418
であって	-9.2842
認識	-9.28423
マニュアル	-9.28424
を中心に	-9.28426
ボ	-9.28429
ミ	-9.28431
旅費	-9.28432
海域	-9.28474
多数	-9.28545
議	-9.29206
17	-9.29214
電話	-9.29237
生活環境	-9.29259
の効果	-9.29315
に活用する	-9.29416
適正	-9.29452
外国	-9.29457
確	-9.29529
技術協力	-9.29591
計画策定	-9.29633
比較	-9.29666
止	-9.29674
軍	-9.2973
NGO	-9.29753
の確保を図る	-9.29756
帯	-9.2976
福島	-9.29762
ネ	-9.29771
国土交通省	-9.29775
版	-9.29783
地方創生	-9.29786
履行	-9.29788
フォローアップ	-9.2979
栄養	-9.29796
発生時	-9.29892
医療従事者	-9.2991
指定都市	-9.29963
迅速に	-9.29986
リー	-9.30002
サイバーセキュリティ	-9.30075
計画の策定	-9.30093
東日本大震災	-9.30229
排出量	-9.30304
18	-9.30325
の分析	-9.30372
年法律第	-9.30565
地下水	-9.30587
ことによって	-9.30681
教	-9.30969
日本企業	-9.30973
地球	-9.31062
命	-9.31067
円	-9.31152
ノ	-9.31171
慰	-9.31175
基地	-9.31202
物資	-9.31218
発行	-9.31266
に要する費用	-9.31307
成果を	-9.31332
年度まで	-9.31426
情報を収集	-9.31484
若者	-9.31493
についても	-9.3152
ロー	-9.31567
先進	-9.31761
選択	-9.31909
関	-9.31945
開発途上国	-9.31974
の魅力	-9.32012
諸外国	-9.32056
担い手	-9.32199
を踏まえて	-9.32282
医学	-9.32301
の連携	-9.32322
素	-9.32481
装	-9.32527
直	-9.32556
諸外国の	-9.32567
チ	-9.3257
ウイルス	-9.32571
感	-9.32587
サイバー攻撃	-9.32587
飼料	-9.32589
遺族	-9.32589
m	-9.3259
意欲	-9.32591
ハローワーク	-9.32596
統一	-9.326
補修	-9.32611
水素	-9.32666
む	-9.32675
職業訓練	-9.32676
事前	-9.32693
職員の	-9.32709
等を通じた	-9.32739
2030	-9.32785
等に基づき	-9.32815
調査を実施し	-9.32841
の課題	-9.32872
の影響	-9.32915
するために必要な	-9.32984
人材の	-9.33254
16	-9.33275
創	-9.33286
べき	-9.33418
することが	-9.33461
と連携し	-9.33465
への影響	-9.33592
交換	-9.33597
介護サービス	-9.33623
を構築	-9.33705
情報の提供	-9.33802
に対する支援	-9.33961
接	-9.33968
政治	-9.34013
勤務	-9.34014
推計	-9.34026
っている	-9.34038
留学生	-9.34038
各府省	-9.3406
発表	-9.34061
船員	-9.34086
積極的に	-9.34105
科学的知見	-9.34186
を開発する	-9.34268
主に	-9.34476
途上国の	-9.34616
を有し	-9.34655
分野において	-9.34723
ために必要な	-9.34783
の予防	-9.34938
体系	-9.35019
国民に	-9.35027
東	-9.35076
調査を実施する	-9.35185
発生する	-9.35267
算	-9.35368
を維持する	-9.3538
半	-9.35455
座	-9.35456
掲げ	-9.35458
首脳	-9.35458
モ	-9.35465
u	-9.35472
難病	-9.35477
検索	-9.3548
沖縄県	-9.35499
電源	-9.35506
温室効果ガス	-9.35548
立場	-9.35581
感染症対策	-9.35607
性の高い	-9.35641
となり	-9.35656
環境保全	-9.35765
先端技術	-9.36093
取組を支援する	-9.36328
所有者	-9.36454
体制を構築する	-9.36587
生産性	-9.36598
買	-9.36649
歳	-9.36712
200	-9.36761
窓口	-9.36762
規	-9.36838
心	-9.36849
相当	-9.36879
牛	-9.36904
超	-9.36908
都	-9.36915
会計	-9.36937
沿岸	-9.3694
財産	-9.36941
原則	-9.36958
EU	-9.37017
防除	-9.37224
手続き	-9.37234
の適正化	-9.37358
を取得する	-9.37581
日常生活	-9.37758
の成果	-9.38313
証	-9.38339
野	-9.38344
離	-9.38355
納	-9.3839
告	-9.38393
以下の事業	-9.38397
ば	-9.38421
仕様	-9.38425
事情	-9.38438
測量	-9.38452
ける	-9.38454
の質	-9.38455
建物	-9.38458
品種	-9.38477
国産	-9.38498
の内容	-9.38527
一層	-9.38551
▁近年	-9.38666
を支援するため	-9.38865
これにより	-9.38875
仕組み	-9.39087
戦略的	-9.39247
の基盤	-9.39276
一定	-9.39353
円滑化	-9.39355
に関する情報	-9.39581
指導者	-9.39628
乳	-9.39925
技	-9.39938
チーム	-9.39939
撃	-9.39942
クラウド	-9.39943
健全な	-9.39945
訴	-9.39946
市区町村	-9.39954
資材	-9.39959
資産	-9.39975
支出	-9.40028
工場	-9.40032
を調査し	-9.40163
継続的な	-9.40378
保険者	-9.40464
区	-9.40561
の振興	-9.40678
商	-9.40941
次の	-9.40963
能力の向上	-9.41084
適切	-9.41145
の経営	-9.41288
等に必要な	-9.41296
件	-9.41296
再開	-9.41353
客	-9.41442
ケ	-9.41451
単	-9.41452
圏	-9.41469
在外公館	-9.41471
十分に	-9.41473
新興国	-9.41475
北海道	-9.41482
滞在	-9.41503
代表	-9.41504
求人	-9.41507
算定	-9.41515
が可能な	-9.41522
事案	-9.41527
持続的な	-9.41545
でき	-9.41613
制	-9.41664
主要な	-9.41667
地域で	-9.41674
にあたり	-9.41746
とりまとめ	-9.41862
臨床	-9.41915
情報交換	-9.41922
研修会	-9.41978
等を支援	-9.42027
競争力強化	-9.42078
住民の	-9.42149
地上	-9.42312
形で	-9.42405
界	-9.42454
とも	-9.42589
説明	-9.427
実施される	-9.42706
確立	-9.42727
を深め	-9.42781
または	-9.42788
が必要	-9.42873
が見込まれる	-9.42906
に委託	-9.42926
記	-9.42929
設立	-9.4297
び	-9.42975
特許	-9.43019
台	-9.43035
の一環として	-9.43038
自衛官	-9.43039
治安	-9.43047
指揮	-9.43048
圧	-9.4305
青少年	-9.4305
全ての	-9.43059
施設等の	-9.43159
社会の	-9.43223
事業化	-9.43236
つの	-9.43272
場所	-9.43348
の中で	-9.43396
ンド	-9.43498
子育て	-9.43572
ラン	-9.43648
1/2。	-9.43669
一時	-9.43714
介護保険	-9.43752
航空機の	-9.4387
水産業	-9.43898
0	-9.44135
に当たって	-9.44218
を強化し	-9.44374
私立	-9.44375
の海外展開	-9.44432
AS	-9.44447
お	-9.44493
毒	-9.44513
の向上を図る	-9.44523
益	-9.44559
を行うことを目的とする	-9.44567
政	-9.44572
認	-9.44579
言	-9.44593
転	-9.44598
温	-9.44616
園	-9.44617
透明性	-9.44626
社会保障	-9.44626
公募	-9.4463
協調	-9.44632
伝達	-9.44632
天然ガス	-9.44632
ベ	-9.44632
薬剤師	-9.44635
火山	-9.44636
働き方改革	-9.4464
役務	-9.44646
大気汚染	-9.44649
最大	-9.44653
入院	-9.44681
工業	-9.44696
有効活用	-9.44699
原料	-9.44699
22	-9.44711
人々	-9.44726
日米	-9.44788
水産	-9.44851
枠組み	-9.44912
それぞれの	-9.44923
環境省	-9.45071
れる	-9.45103
委員	-9.45113
能	-9.45159
の研究	-9.45243
給付金	-9.4529
資金を	-9.453
を交付	-9.45306
加速化	-9.45319
等を図る	-9.45336
広報活動	-9.45386
新型コロナウイルス	-9.45558
向けの	-9.45607
安全衛生	-9.45804
災害時	-9.45923
PR	-9.45925
水質	-9.45977
症	-9.46128
鑑定	-9.46129
三	-9.46171
難	-9.46187
キャリア	-9.46214
候補	-9.46221
弾	-9.46227
そこで	-9.4624
再編	-9.46245
屋	-9.46245
プロモーション	-9.46249
看護師	-9.4625
警備	-9.46253
旅客	-9.46263
納付	-9.46271
ケア	-9.46274
年度以降	-9.46327
等を活用した	-9.46346
を実施することで	-9.46451
改定	-9.46467
支援や	-9.46548
地域活性化	-9.466
の再	-9.46608
先進的な	-9.46643
電気	-9.47048
とその	-9.47249
民間の	-9.47342
の一部を	-9.47342
国内外	-9.47343
の養成	-9.47468
両	-9.47594
以降	-9.47598
放	-9.47791
警	-9.47861
払	-9.47865
抗	-9.47867
西	-9.47879
サミット	-9.4788
唯一の	-9.4788
店	-9.47886
公園	-9.47887
附	-9.47888
を持つ	-9.47888
否	-9.47888
弾薬	-9.4791
変動	-9.47914
に備え	-9.47922
を向上させる	-9.47955
場合には	-9.47958
先端	-9.47993
のもと	-9.48031
取り組む	-9.48044
女性の	-9.4812
に応じ	-9.48181
リスク評価	-9.48209
10/10。	-9.48214
小型	-9.48227
技術者	-9.48452
費等	-9.48532
の供給	-9.48544
地域経済	-9.48563
と連携して	-9.48601
把握し	-9.48721
ように	-9.48764
向上を図る	-9.4877
被害を受けた	-9.48808
させること	-9.48992
教育研究	-9.49022
船舶の	-9.49172
応	-9.49351
輸出拡大	-9.49432
採択	-9.49447
経済社会	-9.49473
画	-9.49512
波	-9.49531
健	-9.49536
宿舎	-9.49536
著しい	-9.4955
位置	-9.49551
態勢	-9.49552
教材	-9.49567
権利	-9.49568
発掘	-9.49581
文化芸術	-9.49587
的確な	-9.49627
収入	-9.4967
旅行	-9.49731
業務を	-9.49851
支援センター	-9.49937
対策事業	-9.50109
全国的な	-9.50148
営	-9.50194
先進国	-9.50503
最新	-9.50561
適切に	-9.50743
を活用する	-9.50882
公表する	-9.51102
結	-9.51195
芸術	-9.51198
漁船	-9.51226
このような	-9.51228
援護	-9.51233
乗	-9.51235
継承	-9.51237
テレワーク	-9.51242
妊	-9.51243
締結	-9.51245
異なる	-9.51245
越	-9.51247
博物館	-9.51248
映像	-9.51248
出願	-9.51254
開設	-9.51255
▁新型コロナウイルス感染症	-9.51297
に関わる	-9.51333
地図	-9.51355
革新的な	-9.51391
相談窓口	-9.51434
沖縄	-9.51594
利子補給	-9.51771
戦略的な	-9.51788
ことを目指す	-9.51825
運営費	-9.51901
中小企業等	-9.5196
高齢	-9.51963
基本的	-9.51965
er	-9.51969
連合	-9.51989
の現状	-9.52024
が保有する	-9.52103
政策立案	-9.52171
の質の向上	-9.52188
産業界	-9.52244
等を通じ	-9.52262
/10	-9.52284
を総合的に	-9.5231
管理する	-9.52319
行われる	-9.52509
PA	-9.52513
を効果的に	-9.5267
を積極的に	-9.52734
を確立する	-9.5274
としている	-9.52752
地球温暖化	-9.5276
歴史	-9.52867
引	-9.52901
計画に基づき	-9.52958
範囲	-9.52965
ズ	-9.52967
断	-9.52972
内閣府	-9.52978
まちづくり	-9.5298
定住	-9.52987
の購入	-9.52995
日閣議決定	-9.53005
活動を	-9.53014
トップ	-9.53015
関係省庁	-9.5303
本件	-9.53033
示	-9.53082
条に基づき	-9.53127
の下で	-9.53133
それら	-9.53202
情報や	-9.53216
実践的な	-9.53233
ことを踏まえ	-9.53263
の改修	-9.53343
効果的に	-9.53366
補助する	-9.53397
設備等	-9.53496
▁我が国	-9.5352
都道府県が	-9.53671
小規模	-9.53703
支援等	-9.5385
の利活用	-9.53945
企画	-9.54206
管理者	-9.54211
保有	-9.5425
の企画	-9.54306
の達成	-9.54307
それぞれ	-9.54391
移行	-9.5442
向	-9.54545
循環	-9.54583
安	-9.54588
院	-9.54603
整備事業	-9.54611
を含め	-9.54641
終了予定なし	-9.54645
に要する	-9.54661
推	-9.54666
北	-9.54678
鳥	-9.54685
ニ	-9.54687
血	-9.54701
地籍調査	-9.54703
極めて	-9.54712
反	-9.54713
最終	-9.54713
形態	-9.54722
表彰	-9.54727
した上で	-9.5473
証明書	-9.5473
火災	-9.54732
廃止	-9.54744
接続	-9.54747
人口減少	-9.54753
円滑かつ	-9.54761
高校生	-9.54763
中心	-9.54765
身体	-9.54784
医療提供体制	-9.54786
積極的な	-9.54811
プ	-9.54821
内に	-9.54823
入手	-9.54836
イン	-9.5491
合同	-9.55064
部分	-9.5507
委託費	-9.55085
適正化	-9.55166
に従事する	-9.5531
40	-9.55315
を受けて	-9.55342
有効	-9.55365
総会	-9.55496
促進事業	-9.55709
UN	-9.55715
我が国企業	-9.55767
経営改善	-9.55877
民間企業等	-9.55963
発生した	-9.55998
後に	-9.56019
を着実に	-9.56034
創設	-9.56227
促進を図る	-9.56378
造	-9.56425
を創出する	-9.5643
義	-9.56463
運動	-9.56467
公正	-9.56479
違反	-9.56495
南	-9.56501
を中心とした	-9.56501
印	-9.56507
共済	-9.56519
ション	-9.5652
良好な	-9.56523
革新的	-9.56526
貨物	-9.56529
公庫	-9.56531
メカニズム	-9.56531
配信	-9.56532
コン	-9.56572
取組み	-9.56586
支援を実施する	-9.56594
健康被害	-9.56633
原子力規制	-9.56723
体制を整備する	-9.56742
基本的な	-9.56767
こととしている	-9.56882
所要の	-9.57019
等からの	-9.57059
社会実装	-9.57072
を作成	-9.57087
災害対応	-9.57119
の品質	-9.57132
財務	-9.57295
計画的に	-9.57324
が求められている	-9.57331
を推進	-9.57419
責任	-9.57436
等の開催	-9.57495
支援を行い	-9.57597
実行	-9.57745
即応	-9.58023
状況を	-9.5805
建設業	-9.58072
定期	-9.5817
開	-9.58183
こと等により	-9.58186
具	-9.58195
能力を	-9.58227
裁判	-9.58242
装備	-9.58295
に係る経費	-9.58296
等と	-9.58309
想定	-9.58319
ソフト	-9.58319
末	-9.58324
運送	-9.58326
離職	-9.58327
3/4	-9.5833
退職	-9.58337
歩	-9.58337
生産者	-9.58401
学び	-9.58402
た上で	-9.58518
大規模な	-9.58551
にて	-9.58653
主な	-9.58656
されるよう	-9.58701
保護者	-9.58745
バイオ	-9.58787
等が行う	-9.59026
の上	-9.59186
の整理	-9.592
おり	-9.59349
施設等の整備	-9.59357
する中	-9.59581
専門家による	-9.59606
令	-9.59633
が発生した	-9.59911
の必要性	-9.59944
分析を行う	-9.59955
ユネスコ	-9.5997
向上に資する	-9.60006
移	-9.60086
適合	-9.60093
自動	-9.60138
模	-9.60144
景	-9.6016
セ	-9.60163
に基づいて	-9.60169
経済産業省	-9.60171
1/4	-9.60182
老	-9.60184
難民	-9.60185
計算	-9.60187
要求	-9.60188
生息	-9.6019
コース	-9.60194
由来	-9.60195
不安	-9.60199
に即した	-9.60221
EPA	-9.60221
議長	-9.60259
進出	-9.60293
技術基準	-9.60352
が連携して	-9.60378
人材確保	-9.6044
相談支援	-9.60447
建築物の	-9.6045
大量	-9.60708
共同研究	-9.60742
調査を行う	-9.60874
の推進を図る	-9.60886
生産性の向上	-9.609
自衛隊の	-9.60919
下水道	-9.60972
調査を行い	-9.61427
少	-9.618
得られた	-9.61847
▁東日本大震災	-9.61935
国際競争力	-9.61946
十分な	-9.61946
備	-9.61954
ガ	-9.62032
遺	-9.62034
渡	-9.6204
ワークショップ	-9.62046
発信する	-9.62047
厳	-9.62057
センサ	-9.6207
ビジョン	-9.62073
素材	-9.62079
を必要とする	-9.62086
流行	-9.62123
品目	-9.62135
有効な	-9.62168
排水	-9.62248
条の	-9.62262
等の業務	-9.62423
同時に	-9.62601
等に資する	-9.62728
の削減	-9.62862
適正に	-9.63063
人的	-9.63268
業界	-9.63317
を踏まえつつ	-9.63408
負担金	-9.63416
航	-9.63423
があり	-9.63437
改修等	-9.63532
番号	-9.63609
社会の実現	-9.63625
変	-9.63745
解	-9.6382
込	-9.63917
損	-9.63943
調	-9.63956
者等の	-9.63963
枠組	-9.63967
聴	-9.63984
病原体	-9.63985
あわせて	-9.63987
銀行	-9.63989
に掲げる	-9.63991
裁	-9.63991
伝統	-9.63992
欧州	-9.63993
双方	-9.63995
利益	-9.64001
関与	-9.64001
自由	-9.64003
込み	-9.64016
強み	-9.64044
司法	-9.64054
用途	-9.64072
効率	-9.64075
機能強化	-9.64119
教職員	-9.6413
経済成長	-9.6414
民間団体	-9.64145
招へい	-9.64167
ところである	-9.64227
地球温暖化対策	-9.64231
食品の輸出	-9.64368
の実証	-9.64369
拡充	-9.64421
する必要がある	-9.64744
できるようにする	-9.64746
取組を推進する	-9.64929
を導入する	-9.65017
との間で	-9.65052
実効性	-9.65472
共	-9.65474
内で	-9.65631
基礎資料	-9.65755
っ	-9.65789
貸	-9.65858
換	-9.65915
待	-9.65922
寄	-9.65934
致	-9.65936
真	-9.65942
紙	-9.65944
見える化	-9.65947
改訂	-9.65948
訪日	-9.65951
バイオマス	-9.65953
ブロック	-9.65953
雨	-9.65954
巡回	-9.65956
年度にかけて	-9.65958
必要不可欠な	-9.65961
等を対象に	-9.65963
すべく	-9.65967
地域の実情に応じた	-9.65968
or	-9.65978
を基に	-9.65994
やその	-9.66016
設	-9.66035
脱炭素化	-9.66093
国は	-9.66102
委託事業	-9.66122
地元	-9.66151
のために必要な	-9.66209
製造業	-9.6624
化学物質の	-9.66245
と連携した	-9.66247
共用	-9.66261
等へ	-9.66266
開催される	-9.6627
していた	-9.6631
した場合	-9.66347
していくため	-9.66441
大型	-9.66495
ことが重要である	-9.66572
を推進するとともに	-9.66786
をより	-9.6681
優良	-9.66843
管理システム	-9.66888
試作	-9.67004
国民健康保険	-9.67022
等の作成	-9.67145
-1	-9.6721
入国	-9.67227
締約国会議	-9.67235
レベルの	-9.67315
のほか	-9.67349
月から	-9.6739
展示	-9.6744
システムの構築	-9.67441
失	-9.67494
年度は	-9.6755
の促進を図る	-9.67555
転換	-9.67626
国際的に	-9.67807
GI	-9.67817
ご	-9.67829
広	-9.67847
キ	-9.67871
実装	-9.67915
追	-9.67925
激	-9.67945
べく	-9.67946
を取り巻く	-9.67947
搬	-9.67952
インバウンド	-9.67954
に把握する	-9.67961
一括	-9.67962
プラスチック	-9.67965
財源	-9.67967
漁場	-9.67976
連合会	-9.67985
合意	-9.67997
帰国	-9.68022
月の	-9.68071
環境の保全	-9.68263
基礎的	-9.68294
研究センター	-9.68348
官民連携	-9.68383
の担い手	-9.68476
IP	-9.68563
体制の強化	-9.68647
横展開	-9.68655
社会経済	-9.68718
の共有	-9.68962
専門的	-9.68969
を得	-9.6897
行っている	-9.68972
策定した	-9.68996
希望	-9.69069
従来	-9.69134
異	-9.69267
国と	-9.69279
モデル事業	-9.69345
政府間	-9.69489
社会福祉	-9.69523
今	-9.69568
とし	-9.69631
集約化	-9.69654
原子力災害	-9.69742
啓発活動	-9.69799
畜産	-9.69852
監督	-9.69923
師	-9.6993
年齢	-9.69931
鉱	-9.69932
負	-9.69984
飛行	-9.69985
植物	-9.69986
コンソーシアム	-9.69989
ポテンシャル	-9.69991
操業	-9.69991
アイヌ	-9.69992
損害	-9.69992
計測	-9.70001
を通して	-9.70003
幼稚園	-9.70007
収益	-9.70008
地理的	-9.70013
製作	-9.70019
経過	-9.70035
作物	-9.70042
面積	-9.70044
民間団体等	-9.70125
国民年金	-9.70131
SS	-9.70159
の周知	-9.70215
中に	-9.70303
事業を	-9.70315
労働災害	-9.70366
実地	-9.70386
保健医療	-9.70476
を派遣し	-9.70502
人道	-9.70798
d	-9.70998
技術的な	-9.71065
本人	-9.71071
解明	-9.71233
等を行うとともに	-9.71301
の交付	-9.71302
活動を行う	-9.71306
基本法	-9.71311
知的	-9.71363
年の	-9.71596
改	-9.71729
国際交流	-9.71742
を実現	-9.71939
役	-9.7202
充	-9.72026
再就職	-9.7203
落	-9.72033
、4、	-9.72034
委	-9.72034
飛	-9.72038
トラック	-9.72054
従	-9.72061
光	-9.72062
栽	-9.72062
パートナーシップ	-9.72071
付加価値	-9.72072
健診	-9.72072
問	-9.72073
実習	-9.72073
救済	-9.72076
メディア	-9.7208
農村	-9.7208
に鑑み	-9.72081
仮	-9.72081
地理空間情報	-9.72081
カリキュラム	-9.72082
コミュニケーション	-9.72082
徴収	-9.72082
邦人	-9.72082
厳しい	-9.72083
演習	-9.72083
免除	-9.72091
試行	-9.72098
ライフ	-9.72108
再建	-9.72134
障害児	-9.72153
ものづくり	-9.7232
を行うものである	-9.72414
を交付する	-9.72527
毎に	-9.72676
場合は	-9.72756
の仕組み	-9.72759
中学校	-9.72766
臨床研究	-9.7286
を維持するため	-9.72912
教育委員会	-9.72979
相談員	-9.73024
の取組を支援する	-9.73075
民間事業者等	-9.73212
整備を行う	-9.73248
子育て支援	-9.73448
二	-9.73508
国外	-9.73515
地域社会	-9.73543
タイ	-9.73598
自立支援	-9.7364
分析を行い	-9.73678
的確	-9.73708
のみ	-9.73782
の枠組み	-9.73791
排出削減	-9.73793
アクセス	-9.73906
だ	-9.73922
それらの	-9.73938
実施するため	-9.73939
ことを目的とした	-9.73948
の一つ	-9.74051
利便性	-9.74057
ていない	-9.74059
等の調査	-9.74077
観点	-9.74083
交	-9.74112
初	-9.74146
スマート	-9.74151
残	-9.74168
病害虫	-9.74187
居	-9.74195
運航	-9.74197
の認定	-9.74198
変革	-9.74201
に貢献し	-9.74201
広告	-9.74203
レビュー	-9.74204
輸出先国	-9.74208
に起因する	-9.74208
考え方	-9.74213
給与	-9.7422
結核	-9.74223
高潮	-9.74224
中核市	-9.7424
最適な	-9.74245
通知	-9.74246
を促進するための	-9.74267
負担軽減	-9.74268
農薬	-9.74273
を開発し	-9.74273
陸上自衛隊	-9.74277
の各	-9.74284
書類	-9.74308
加入	-9.74325
応用	-9.74329
中長期的な	-9.74373
産学官	-9.74436
を進めるため	-9.74544
資質	-9.74572
基礎的な	-9.74645
一元的に	-9.74652
本事業により	-9.74664
説明会	-9.74674
海外展開	-9.74697
一方で	-9.74729
世界的な	-9.7481
災害復旧	-9.74925
安定的に	-9.7508
複数	-9.75112
等との	-9.75222
課題について	-9.75237
地域に	-9.75346
具体的	-9.75396
進め	-9.75397
行い	-9.75398
地下	-9.75455
を策定する	-9.75544
の取組を	-9.75562
出資	-9.75573
の検討を行う	-9.75595
を確認する	-9.75614
結果を	-9.75618
することによって	-9.75659
を推進するための	-9.75701
研修の実施	-9.75787
を推進することにより	-9.75827
健康管理	-9.75868
一方	-9.76007
安定的	-9.7609
等に関する法律	-9.76161
などにより	-9.76186
の継続	-9.76197
財	-9.76252
よ	-9.76295
発達	-9.76308
サイクル	-9.76346
柱	-9.76349
知的財産	-9.76353
芸	-9.76358
妥当性	-9.7636
廃棄物処理	-9.76366
だけでなく	-9.76368
エイズ	-9.76369
資機材	-9.76369
容易に	-9.76369
人件費	-9.7637
談	-9.76371
稼働	-9.76374
y	-9.76375
専修学校	-9.76378
消耗品	-9.7638
十	-9.76382
劣化	-9.76382
請求	-9.76386
をはじめとした	-9.76387
出展	-9.76392
優先	-9.76394
予報	-9.76395
訪日外国人	-9.76397
わが国	-9.76402
横断的な	-9.76431
増大	-9.76434
在外	-9.76471
修学	-9.76483
大気	-9.76487
自然環境	-9.76489
の一部を補助	-9.76489
不正	-9.76494
とされている	-9.76496
設立された	-9.76501
都市再生	-9.76554
自動化	-9.76568
被災地の	-9.76568
保健所	-9.76614
技術や	-9.76616
に資する事業	-9.76665
強い	-9.76723
の低減	-9.76724
に向けた検討	-9.76725
に対する補助	-9.76733
私立学校	-9.76776
経年	-9.76798
EC	-9.76826
事業を実施	-9.7685
共通の	-9.77128
財政支援を行う	-9.77165
を支給	-9.77227
RC	-9.77252
その成果を	-9.77253
と連携	-9.77258
に対処するため	-9.77264
個	-9.77427
るとともに	-9.77527
を設置する	-9.77686
現地調査	-9.77713
化学	-9.77865
省庁	-9.77891
技術的知見	-9.77957
因	-9.77991
力強化	-9.78043
知見を	-9.78057
総合的	-9.7814
速	-9.78174
信用	-9.78435
語	-9.78485
助成金	-9.78501
与	-9.7854
績	-9.78562
NPO	-9.78571
システムの開発	-9.78576
火	-9.7858
頭	-9.78581
賞	-9.78581
退	-9.78584
周	-9.78584
スキル	-9.78588
誘導	-9.78588
軽	-9.7859
ワ	-9.78595
序	-9.78595
中堅	-9.78596
白書	-9.78597
パレスチナ	-9.78597
傾向	-9.78598
不具合	-9.78599
水銀	-9.78601
ロシア	-9.78601
訪日外国人旅行者	-9.78604
複合	-9.78609
人手不足	-9.78611
ミッション	-9.78613
の迅速化	-9.78614
PFI	-9.78629
融合	-9.78631
公益	-9.78644
を継続	-9.78657
通常	-9.78658
配分	-9.78692
これを	-9.7876
海上自衛隊	-9.78762
分類	-9.78763
人の	-9.78767
都市の	-9.78792
対日	-9.78839
に不可欠な	-9.7885
脱炭素	-9.78851
カー	-9.789
、10/10、	-9.78963
規模の	-9.78998
本事業を実施する	-9.79053
やすい	-9.79138
化を図る	-9.79186
情報通信技術	-9.7924
支援機関	-9.79248
を確保することを目的とする	-9.79259
時に	-9.7928
警察活動	-9.79322
割合	-9.79544
の機会	-9.79563
研修事業	-9.79589
を負担する	-9.79631
助成を行う	-9.797
の解消	-9.79828
毎	-9.7984
の理解	-9.79921
経済活動	-9.79976
向上のための	-9.80078
を実施した	-9.80086
TC	-9.80272
時期	-9.80279
ことが必要である	-9.80306
事業実施	-9.80468
基盤技術	-9.8051
を行うもの	-9.80546
の実現に向けた	-9.80561
戦略的に	-9.80597
学会	-9.80599
療	-9.80628
悪	-9.80696
を検討し	-9.8074
値	-9.8075
注	-9.80779
予	-9.80805
を対象とし	-9.80841
母	-9.80853
肝炎	-9.80858
閣僚	-9.80858
ペ	-9.80862
授業	-9.80864
正確な	-9.80866
査察	-9.80871
エンジン	-9.80873
損失	-9.80877
TPP	-9.80877
を始めとする	-9.80879
樹	-9.80887
パリ協定	-9.80888
期待	-9.80895
厚生	-9.809
初期	-9.80908
限定	-9.80914
検定	-9.80925
に際して	-9.80933
体育	-9.80954
後継	-9.80983
先行	-9.81006
流出	-9.81015
国民への	-9.81022
の向上及び	-9.81025
水準の	-9.81034
を要する	-9.81046
DB	-9.8108
重要である	-9.81111
事務処理	-9.81147
の設定	-9.8115
海外における	-9.81228
利便性向上	-9.8124
国から	-9.81244
ータ	-9.81251
個人情報	-9.81277
より一層	-9.81294
プレ	-9.81325
条約事務局	-9.81351
団体等	-9.81476
デジタル化	-9.81518
現場で	-9.81766
創業	-9.81862
有効性	-9.81902
災害時に	-9.81919
大企業	-9.81954
に努める	-9.81978
全体で	-9.82053
日常	-9.82061
我が国として	-9.82108
の使用	-9.82321
エコシステム	-9.82349
の基盤となる	-9.82371
のない	-9.8244
総合的に	-9.82629
を防止する	-9.82722
安定した	-9.82741
産品	-9.82767
レス	-9.82868
所管	-9.82933
積極的	-9.82939
提	-9.83087
消	-9.83118
審議	-9.83145
施設について	-9.83166
念	-9.83174
ひいては	-9.83189
に支障	-9.8319
リスト	-9.83191
処遇	-9.83194
記載	-9.83196
調和	-9.83196
にわたる	-9.83197
田	-9.83197
直轄	-9.83198
理事会	-9.83199
p	-9.83199
個々の	-9.832
参考	-9.832
〔	-9.83201
貧困	-9.83201
高まっている	-9.83202
シミュレーション	-9.83206
国有財産	-9.83206
幅広く	-9.83207
Society	-9.83207
フェ	-9.83208
5。0	-9.83208
しながら	-9.83208
主催	-9.83209
ユーザー	-9.83212
多言語	-9.83215
外部有識者	-9.83245
状況や	-9.83306
理解促進	-9.83308
健康増進	-9.83333
所在	-9.83374
有する	-9.83401
状況にある	-9.83429
を養成する	-9.83433
を利用した	-9.83446
レベルで	-9.8347
を明らかにする	-9.83493
地域の実情	-9.83512
国際連合	-9.83543
の円滑な実施	-9.83597
対象となる	-9.83602
指導員	-9.83626
試	-9.83695
した場合に	-9.83769
力の向上	-9.83779
災害時の	-9.83845
に当たり	-9.83846
交付する	-9.83994
地域への	-9.84007
太平洋	-9.84054
衛生管理	-9.84105
高齢者の	-9.84326
を国が	-9.84357
ことを通じて	-9.84371
を一層	-9.84911
事務費	-9.84957
が求められる	-9.84976
検討を行い	-9.85027
を検討	-9.85032
安全の確保	-9.85036
利用する	-9.85044
にあたって	-9.85168
以	-9.85297
短期	-9.85345
信	-9.85369
状況調査	-9.85374
浄化槽	-9.85433
専	-9.85471
指	-9.85477
人材を	-9.85478
還	-9.85546
外務省	-9.85559
艦	-9.85562
エリア	-9.85564
+	-9.85566
の審査	-9.85569
音	-9.85571
遊	-9.85571
町	-9.85574
翻訳	-9.85574
が高く	-9.85575
農山漁村	-9.85579
が期待される	-9.85579
レーダ	-9.85581
〕	-9.85581
克服	-9.85582
となっており	-9.85585
リーダー	-9.85589
整備する	-9.8559
ヘルスケア	-9.8559
制限	-9.85602
考	-9.85615
在留	-9.85623
休業	-9.85629
数値	-9.85637
支払う	-9.85638
高校	-9.85647
ライ	-9.85663
ごとの	-9.85681
について検討する	-9.85695
薬物	-9.85701
支払い	-9.85723
建	-9.85743
その結果を	-9.85744
政策提言	-9.85776
整理し	-9.85798
MS	-9.8581
体制構築	-9.85872
経費を	-9.86177
環境の改善	-9.86195
医師の	-9.863
好	-9.86328
実証を行う	-9.86398
国内で	-9.86488
学術研究	-9.86616
医療保険	-9.86628
の影響により	-9.86631
EA	-9.86685
等を対象とした	-9.86789
への取組	-9.86802
若年	-9.86806
との関係	-9.8685
情報連携	-9.86988
の充実を図る	-9.87031
を開催	-9.87072
▁国際	-9.87102
の実用化	-9.87119
研修を実施する	-9.87189
単位	-9.87219
開拓	-9.8735
寄与	-9.8735
しやすい	-9.87427
中小企業者	-9.87457
普及促進	-9.87469
や企業	-9.8774
サービスの提供	-9.87755
公共交通	-9.87755
先進事例	-9.87756
専門性	-9.87814
会の開催	-9.87864
第三	-9.87878
途	-9.87902
に関する情報を	-9.87909
ど	-9.87911
ップ	-9.87944
住	-9.87952
決	-9.87956
切	-9.87983
延	-9.87987
査	-9.87989
省力化	-9.87999
返還	-9.88003
を支援することで	-9.88006
緑	-9.88006
k	-9.88007
を促し	-9.88011
申	-9.88013
滅	-9.88013
長寿命化	-9.88015
群	-9.88015
が抱える	-9.88016
に基づいた	-9.88017
ミサイル	-9.88017
頻発	-9.8803
メーカー	-9.88039
ネット	-9.88041
分布	-9.88047
分野で	-9.88048
航行	-9.88054
al	-9.88061
事件	-9.88064
2016	-9.88074
現行	-9.88086
業種	-9.881
を育成する	-9.88135
情報提供を行う	-9.88162
国境	-9.88194
中東	-9.88251
の平和と	-9.88278
経済財政	-9.88285
原子力施設	-9.88338
費補助金	-9.88422
にあたっては	-9.88437
理解を深める	-9.88465
を確保するとともに	-9.88534
が有する	-9.88546
に貢献するとともに	-9.88584
の目的	-9.8881
大規模災害	-9.88842
生じる	-9.88898
子供	-9.89033
の規定に基づき	-9.89037
従来の	-9.89069
に関する事業	-9.89091
00	-9.89234
国庫負担	-9.89348
調査の実施	-9.89355
行うため	-9.89407
機関として	-9.89444
アジア諸国	-9.89658
への参加	-9.89708
交通安全	-9.89808
受付	-9.89813
資源管理	-9.89835
るよう	-9.89879
してきた	-9.89956
災害復旧事業	-9.90004
雇用管理	-9.90005
調査及び	-9.90106
農林水産	-9.90132
国際法	-9.90165
てきた	-9.90179
部隊の	-9.9033
開催する	-9.9034
継	-9.90357
等との連携	-9.9039
女	-9.90401
年度から令和	-9.90415
の展開	-9.9043
の生産性向上	-9.90465
論	-9.90468
照	-9.90469
さらなる	-9.90489
h	-9.90491
炉	-9.90498
コロナ	-9.90498
帰還	-9.90507
完了	-9.9051
環境影響評価	-9.90513
係	-9.90514
供与	-9.90516
ソフトウェア	-9.90516
バリアフリー	-9.90517
ハイレベル	-9.90519
以下のとおり	-9.90519
にわたり	-9.90521
国家公務員	-9.90527
ザ	-9.90528
濃度	-9.90529
を希望する	-9.90531
気候	-9.90536
被保険者	-9.90543
まとめ	-9.90545
就学	-9.90555
定められた	-9.90557
特例	-9.90557
薬局	-9.90611
評価手法	-9.90641
定期的に	-9.90672
部外	-9.90694
日本国	-9.90696
を図りつつ	-9.90717
第三者	-9.90775
小学校	-9.90794
保健指導	-9.90795
国際標準化	-9.90807
らし	-9.90814
有機	-9.90864
生じた	-9.90895
災害発生時	-9.90972
ための調査	-9.91016
を迅速に	-9.91043
しかし	-9.9106
再生医療	-9.91149
を的確に	-9.91175
重点的	-9.91184
被災地域	-9.91221
商業	-9.91355
学校教育	-9.91357
段階から	-9.91371
関係団体	-9.91433
を拠出する	-9.91513
設備の整備	-9.91528
進展	-9.91688
電気通信	-9.91855
利便性の向上	-9.91917
70	-9.91954
の議論	-9.91978
合理化	-9.92053
、1/2。	-9.92103
を解消	-9.92159
進める	-9.92179
低炭素	-9.92181
を防止するため	-9.92218
を実現し	-9.92525
多く	-9.92556
第一	-9.92593
補助事業	-9.92713
助成する	-9.9279
庫	-9.9291
年までに	-9.92942
に活用し	-9.92952
ピ	-9.92988
射	-9.93011
中長期	-9.93018
拠点として	-9.93034
港	-9.93051
緊	-9.93062
ハード	-9.93064
滞	-9.93064
縮	-9.93065
メンバー	-9.93068
千	-9.93073
議定書	-9.9308
すべての	-9.93081
潜水艦	-9.93082
の実態把握	-9.93083
深刻化	-9.93083
耐震化	-9.93083
壁	-9.93085
が懸念される	-9.93087
各種事態	-9.93088
アプローチ	-9.93089
花き	-9.93089
からなる	-9.9309
蓄電池	-9.9309
農産物	-9.93091
実効的	-9.93097
還元	-9.93103
日系人	-9.93111
となって	-9.93121
制約	-9.93133
を活かした	-9.93141
報道	-9.93143
野生	-9.93144
シンポジウム	-9.93174
を確立し	-9.93175
ことを目的に	-9.93206
限り	-9.93206
重度	-9.9322
基盤の整備	-9.93413
への転換	-9.93436
の取り組み	-9.93477
が図られ	-9.93497
の特性	-9.93513
テロ対策	-9.93519
を設け	-9.93528
諸外国における	-9.93568
の集計	-9.93597
開発途上国の	-9.93653
500	-9.9371
労働力	-9.93738
等のための	-9.93747
を図ることを目的としている	-9.93801
地域づくり	-9.93817
間の連携	-9.93934
替え	-9.9395
60	-9.94193
人間	-9.94401
いた	-9.945
に反映	-9.94548
するためには	-9.94558
推進を図る	-9.9457
医療機関等	-9.94625
第二	-9.94667
バー	-9.94703
分野での	-9.94781
手法の開発	-9.94794
情報セキュリティ	-9.94842
防災対策	-9.94847
大学等の	-9.94915
沖縄の	-9.95115
サイバー	-9.95162
の製造	-9.95176
の活動を支援する	-9.95207
クロ	-9.95212
を把握するため	-9.95282
への理解	-9.95335
利用者の	-9.95568
達	-9.95628
章	-9.9567
優	-9.95676
生徒	-9.95694
跡	-9.95701
救急医療	-9.95708
乱	-9.95708
職業紹介	-9.9571
商店街	-9.9571
結び	-9.95711
重大な	-9.95711
弱	-9.95713
漁港	-9.95714
危機管理	-9.95716
ストック	-9.95717
ヒアリング	-9.95718
を対象とする	-9.95719
につき	-9.95721
探知	-9.95728
発効	-9.95732
参入	-9.95735
公平	-9.95736
フリー	-9.95753
の監視	-9.95761
隊員	-9.95791
韓国	-9.95795
2021	-9.95809
起業	-9.95825
効率的かつ	-9.95836
次期	-9.95874
拠点病院	-9.95882
物品	-9.95885
重要インフラ	-9.95915
金利	-9.9593
最も	-9.95935
会員	-9.95938
1、000	-9.96007
社会資本整備	-9.96037
人工	-9.9607
人員	-9.9622
調査等を実施する	-9.96246
進行	-9.96384
国際社会における	-9.9655
を支給する	-9.96602
国庫補助	-9.96619
になる	-9.96636
異常	-9.96665
情報等を	-9.96697
その成果	-9.96887
各種施策	-9.96935
をもって	-9.9697
スタ	-9.96992
高効率	-9.97072
事業を実施し	-9.97219
の約	-9.97221
支援を行うことにより	-9.97447
に関する検討	-9.97642
ていくため	-9.97677
に係る調査	-9.97709
常時	-9.97714
オフ	-9.97808
全国に	-9.97826
医療施設	-9.97888
できるように	-9.97899
国内における	-9.97997
地域での	-9.98172
土砂	-9.9821
を検証する	-9.98228
包括的	-9.98305
我が国に	-9.98358
冷	-9.9836
戦闘	-9.98361
村	-9.98374
標	-9.98377
早	-9.98383
免	-9.98398
応援	-9.98403
グリーン	-9.98404
ポイント	-9.98408
石綿	-9.98409
働きかけ	-9.98409
立ち上げ	-9.98409
騒音	-9.98411
多国間	-9.98413
速やかに	-9.98414
古	-9.98415
包	-9.98416
急速に	-9.98416
も踏まえ	-9.98416
人工知能	-9.9842
種苗	-9.9842
当初	-9.98426
端末	-9.98428
本邦	-9.98431
制作	-9.98431
入札	-9.98437
福祉の増進	-9.98441
基本方針	-9.98443
営農	-9.98443
保健師	-9.98444
判定	-9.98445
配備	-9.98446
令和元年台風	-9.98455
生命	-9.98467
2018	-9.98479
計画に基づく	-9.98486
を実施するため	-9.98494
開発協力	-9.98494
大学院	-9.98499
留学	-9.98529
先進的	-9.98539
マイ	-9.98545
交付率	-9.9855
歴史的	-9.98592
本省	-9.98635
企画立案	-9.98669
国において	-9.98676
の維持管理	-9.98687
を実施するための	-9.98725
食品安全	-9.98731
資料の作成	-9.98777
問題の解決	-9.98791
を促進することを目的とする	-9.988
向上を図るため	-9.9894
化や	-9.98946
に当たっては	-9.99121
更に	-9.99132
の安定化	-9.99236
。4。	-9.99258
周辺の	-9.99265
のための取組	-9.99315
地域の活性化	-9.99426
らない	-9.99439
させるとともに	-9.99463
安心して	-9.99496
プロジェクト管理	-9.99525
生活の安定	-9.99699
の実現を図る	-9.99767
を明らかにし	-9.99812
を目的としている	-9.99861
支援を実施	-9.99948
最大限	-9.99998
放射性物質の	-10.0005
医療機器等	-10.0008
を与える	-10.002
同時	-10.0023
近年の	-10.0025
されていない	-10.0025
となるよう	-10.0028
個別の	-10.0031
系統	-10.0033
行動計画	-10.004
相互理解	-10.0041
施策の推進	-10.0064
解消	-10.0067
体制強化	-10.0068
を達成するため	-10.0068
これまでの	-10.007
果たす	-10.0097
機関である	-10.0098
築	-10.0114
演	-10.0115
底	-10.0115
マイナンバー	-10.0116
掘	-10.0116
疑	-10.0117
絶	-10.0117
雪	-10.0118
ポータルサイト	-10.0118
予備自衛官	-10.0119
四	-10.0119
販路開拓	-10.0119
沖	-10.0119
を未然に防止	-10.0119
ロードマップ	-10.0119
保障措置	-10.0119
債権	-10.012
認知	-10.012
一連の	-10.012
川	-10.012
提示	-10.012
過去の	-10.012
コード	-10.012
走行	-10.012
修了	-10.012
要望	-10.0121
停電	-10.0121
操作	-10.0121
世界遺産	-10.0121
景観	-10.0122
飛行場	-10.0122
制定	-10.0123
合わせて	-10.0126
リース	-10.0126
の実施状況	-10.0127
内容を	-10.0128
まち	-10.0129
成長戦略	-10.0129
平時	-10.013
複雑化	-10.0133
専門家派遣	-10.0144
改修工事	-10.0147
のためには	-10.0152
観光資源	-10.0155
リン	-10.0155
その結果	-10.0156
に資すること	-10.0168
含む	-10.017
経営体	-10.0172
に寄与し	-10.0173
生活支援	-10.0174
存在する	-10.0183
試験研究	-10.0186
効果検証	-10.019
早期に	-10.0202
を提供し	-10.0203
災害対策	-10.0214
競争力	-10.0216
なり	-10.0234
システムの整備	-10.0239
ことが必要	-10.0241
就職支援	-10.0255
管理運営	-10.026
ことは	-10.0263
整	-10.0281
技術を活用した	-10.0285
設備整備	-10.0295
海洋環境	-10.0295
の確認	-10.0303
地域資源	-10.0319
定量的	-10.0323
持続的	-10.0325
の社会実装	-10.0327
を反映	-10.033
次元	-10.0333
税制	-10.0337
等を図るため	-10.0347
を評価する	-10.035
あり	-10.0353
周辺地域	-10.0359
評価し	-10.0365
を収集し	-10.0366
データを収集	-10.0366
を広く	-10.0382
ベース	-10.0397
届	-10.0398
II	-10.04
2/3。	-10.0402
大幅な	-10.0403
極	-10.0403
研	-10.0403
運輸	-10.0404
棟	-10.0404
する場合	-10.0404
あらゆる	-10.0404
プレゼンス	-10.0405
あっせん	-10.0405
橋	-10.0405
喫緊の課題	-10.0405
パラリンピック	-10.0405
豊かな	-10.0405
及	-10.0405
市街地	-10.0405
v	-10.0405
政令	-10.0405
通訳	-10.0405
透	-10.0405
潜在	-10.0405
ガバナンス	-10.0406
ボランティア	-10.0406
深刻な	-10.0406
糖	-10.0406
自動運転	-10.0406
農林水産省	-10.0406
麻薬	-10.0407
在宅医療	-10.0407
養育	-10.0407
心身	-10.0407
管制	-10.0408
自殺	-10.0408
病床	-10.0408
警報	-10.0409
発射	-10.0409
重症	-10.041
東京電力	-10.041
動植物	-10.041
共生	-10.0411
作戦	-10.0411
集団	-10.0414
相当額	-10.0416
ブル	-10.0419
ようとする	-10.042
食文化	-10.0422
部局	-10.0425
悪化	-10.0427
成立	-10.0429
要素	-10.0429
内部	-10.0431
有効利用	-10.0433
医療の提供	-10.0434
を委託する	-10.0436
加盟国の	-10.0438
を一体的に	-10.0439
との意見交換	-10.044
ce	-10.0442
水産資源	-10.045
交通事故	-10.0458
環境の変化	-10.0469
経費の一部	-10.0475
最適化	-10.0486
バイ	-10.0488
つつある	-10.0488
ないよう	-10.0516
目標の達成	-10.0529
長期間	-10.053
特定の	-10.0531
研究会	-10.0533
両国	-10.0533
水道事業	-10.0537
の在り方について	-10.0538
宿泊	-10.0553
仕事	-10.0574
公害	-10.0597
能力強化	-10.06
品質管理	-10.0607
当たり	-10.0618
人材を育成する	-10.0622
助成事業	-10.0622
東日本大震災により	-10.0627
サービス提供	-10.063
日本が	-10.0635
の適正	-10.0642
一元的	-10.0646
が安心して	-10.0655
を確保すること	-10.0656
が生じ	-10.0661
投	-10.0663
以外	-10.0663
付与	-10.0671
等の取組を支援	-10.0683
測	-10.0687
求	-10.0688
を超え	-10.0688
豪雨	-10.069
が適切に	-10.0691
拡	-10.0693
和	-10.0695
爆	-10.0696
鉄	-10.0697
称	-10.0697
→	-10.0697
戦没者	-10.0698
像	-10.0698
化学兵器	-10.0698
福	-10.0698
チェック	-10.0698
われる	-10.0699
HIV	-10.0699
組み合わせ	-10.0699
を行っており	-10.0699
ビッグデータ	-10.07
ハンセン病	-10.07
WHO	-10.07
健康診査	-10.07
東京オリンピック	-10.07
応急	-10.07
メール	-10.0701
熟	-10.0701
無利子	-10.0701
検診	-10.0701
職業能力開発	-10.0701
日韓	-10.0701
が多い	-10.0702
高速道路	-10.0703
検疫	-10.0703
内外の	-10.0703
観光客	-10.0706
社会復帰	-10.0706
外来	-10.0706
新設	-10.0707
出入国	-10.0707
必要に応じて	-10.0708
行えるよう	-10.0708
歯科医師	-10.071
種類	-10.0712
を進めている	-10.0713
民生	-10.0717
エネルギー消費	-10.0717
を後押しする	-10.0719
の回復	-10.0723
HP	-10.0725
が課題となっている	-10.0726
を試作し	-10.0731
研究試作	-10.0732
広域的な	-10.0743
PM	-10.0753
を取り	-10.0764
に必要な調査	-10.0781
ものとする	-10.0788
状況の把握	-10.0805
臨床研修	-10.0805
基礎研究	-10.0806
利便	-10.0809
存在	-10.0812
国民が	-10.0816
水準の向上	-10.0825
希望者	-10.0832
を防止し	-10.0843
研究機関等	-10.0843
ていた	-10.0852
日に	-10.0874
農業生産	-10.0881
子供の	-10.0881
に従事	-10.09
環境基準	-10.0903
人道支援	-10.091
利子	-10.0917
に関する事務	-10.0921
について検討を行う	-10.0944
実情	-10.0959
一体的に	-10.0984
漁	-10.0994
治	-10.0995
術	-10.0996
判	-10.0998
燃料電池	-10.0999
決議	-10.0999
遺骨	-10.1
覚	-10.1
特徴	-10.1
興	-10.1
故	-10.1001
防衛装備	-10.1001
クレジット	-10.1001
ね	-10.1001
先導的な	-10.1001
根拠	-10.1001
リアルタイム	-10.1001
顕在化	-10.1001
の実施により	-10.1002
働き方	-10.1002
画像	-10.1002
あるいは	-10.1002
沿	-10.1002
倒	-10.1002
を図っている	-10.1002
空き家	-10.1002
隔	-10.1002
録	-10.1002
鳥獣	-10.1002
アドバイザー	-10.1002
パネル	-10.1002
を除く	-10.1002
資金繰り	-10.1003
規則	-10.1003
望ましい	-10.1003
練	-10.1003
奨	-10.1003
なければならない	-10.1003
探査	-10.1003
高等専門学校	-10.1003
高等教育	-10.1004
修得	-10.1004
ESG	-10.1004
残留	-10.1004
補給	-10.1004
疫学	-10.1006
市民	-10.1007
職務	-10.1008
海難	-10.101
確実な	-10.1011
に要する経費の一部を補助する	-10.1011
通報	-10.1011
総合的かつ	-10.1012
ライン	-10.1012
政策の企画立案	-10.1015
に関する研修	-10.1017
2025	-10.1018
作り	-10.1022
高性能	-10.1029
こととされている	-10.1036
年以降	-10.1039
られるよう	-10.104
安全に	-10.1055
外国人材	-10.1057
か国	-10.1062
への移行	-10.1062
の軽減	-10.1072
航空自衛隊	-10.1074
国際展開	-10.1083
受給者	-10.1107
長期的	-10.1117
入れ	-10.1135
入所	-10.1138
を図ることで	-10.1138
可能とする	-10.1141
を支援するための	-10.1145
を取得し	-10.1153
を創出し	-10.1165
を定め	-10.1166
安定供給	-10.117
観測データ	-10.1174
に関する相談	-10.1181
継続して	-10.1181
活用できる	-10.1184
金を支給する	-10.1207
借	-10.1225
の進捗状況	-10.1238
する予定である	-10.1263
上の課題	-10.1273
ベンチャー	-10.1278
を維持し	-10.1288
35	-10.129
補完	-10.1297
反映させる	-10.1299
件数	-10.13
考え	-10.1305
も含め	-10.1306
拡散	-10.1309
比	-10.1311
ODA	-10.1312
指示	-10.1312
概	-10.1313
マイナンバーカード	-10.1313
立入検査	-10.1314
の未然防止	-10.1314
と認められる	-10.1314
放射性廃棄物	-10.1314
若手	-10.1314
に配慮した	-10.1314
移住	-10.1314
閲覧	-10.1314
台帳	-10.1315
東南アジア	-10.1315
迫	-10.1315
公衆衛生	-10.1315
混	-10.1315
ドローン	-10.1315
中南米	-10.1315
ウェブサイト	-10.1315
戸	-10.1315
発見	-10.1315
b	-10.1315
の健全な発展	-10.1315
福島第一原子力発電所	-10.1315
スキーム	-10.1316
艦艇	-10.1316
見通し	-10.1316
意義	-10.1316
コンテナ	-10.1316
持続的発展	-10.1318
負担の軽減	-10.1318
配送	-10.1319
農家	-10.1321
我が国で	-10.1322
戦闘機	-10.1322
下げ	-10.1322
力向上	-10.1322
大臣会合	-10.1322
の活用による	-10.1322
の促進に関する法律	-10.1327
専用	-10.1328
データの収集	-10.1329
の増大	-10.1335
毎年度	-10.134
を配置し	-10.1341
年度開始	-10.1341
ために必要となる	-10.1345
を調査する	-10.1348
域内	-10.135
人の健康	-10.1358
未利用	-10.1359
に関する取組	-10.1365
が発生し	-10.1368
通信機器	-10.1369
経営の安定	-10.1371
保健福祉	-10.1374
して行う	-10.1378
日本で	-10.1381
医療安全	-10.1384
成分	-10.1389
を利用する	-10.1391
展示会	-10.1394
月額	-10.1409
調査員	-10.1412
確実に	-10.1415
に対する理解	-10.1419
が行われ	-10.1437
の合理化	-10.144
社会福祉施設	-10.1446
の方向性	-10.1449
していない	-10.1455
65	-10.146
TA	-10.1464
シーズ	-10.1464
1/3。	-10.1491
日本産	-10.1495
に参加し	-10.1517
日本と	-10.1524
農業経営	-10.1533
好事例	-10.1536
の最適化	-10.1556
持続可能な開発	-10.1557
等を活用し	-10.1571
現場の	-10.1578
の拡充	-10.1584
健康影響	-10.1604
を可能とするため	-10.1608
横断	-10.1608
多様	-10.1611
運転者	-10.1616
含	-10.1617
向けに	-10.1617
平	-10.1618
採	-10.1623
着実な	-10.1628
交付金を交付する	-10.1628
足	-10.1632
購入費	-10.1632
インフルエンザ	-10.1633
を目的に	-10.1634
再犯防止	-10.1635
を経て	-10.1635
埋	-10.1635
肉	-10.1635
ソ	-10.1635
卒	-10.1635
商工会議所	-10.1635
商工会	-10.1635
軍縮	-10.1635
易	-10.1635
イニシアティブ	-10.1635
コンサルタント	-10.1636
減災対策	-10.1636
漁獲	-10.1636
勢	-10.1636
を更に	-10.1636
国際化	-10.1636
繁栄	-10.1636
バランス	-10.1636
オリンピック	-10.1636
護衛艦	-10.1636
街	-10.1637
ヤ	-10.1637
成長産業化	-10.1637
アレルギー	-10.1637
内閣官房	-10.1637
と考えられる	-10.1637
普	-10.1637
取締り	-10.1637
譲渡	-10.1637
をもとに	-10.1637
ZEH	-10.1637
少子高齢化	-10.1637
過労死	-10.1637
伴	-10.1637
ぎ	-10.1637
コンピュータ	-10.1638
に与える影響	-10.1638
申告	-10.1638
措置を講ずる	-10.1638
エビデンス	-10.1638
株	-10.1638
にも資する	-10.1638
が急務	-10.1638
厚生労働大臣	-10.1638
奨学金	-10.1638
列	-10.1639
が想定される	-10.1639
ホーム	-10.1639
二酸化炭素	-10.1639
読	-10.1639
東北	-10.1639
審議会	-10.1639
概要	-10.1639
カード	-10.1639
酒類	-10.164
廃炉	-10.164
微生物	-10.164
建造物	-10.164
伝送	-10.1641
同様	-10.1641
学ぶ	-10.1642
小売	-10.1642
職場定着	-10.1642
発症	-10.1643
無料	-10.1643
魅力ある	-10.1645
きめ細かな	-10.1647
てきている	-10.1649
要員	-10.1654
高精度	-10.1654
案内	-10.1655
に係る費用	-10.1662
地球環境	-10.1666
避難所	-10.1668
しない	-10.1669
IF	-10.1673
ネットワークの構築	-10.1673
特性に応じた	-10.1674
実際に	-10.1675
少年	-10.1676
だけ	-10.1678
事業主に対して	-10.1679
社会参加	-10.1681
国会	-10.1682
協力関係	-10.169
機体	-10.1691
に対して補助を行う	-10.1709
法定	-10.1712
コー	-10.1718
のための調査	-10.1721
力の強化	-10.1728
産学	-10.1734
を設定し	-10.1736
行われている	-10.1739
を考慮した	-10.1744
による影響	-10.1744
対策を推進する	-10.175
を促進するとともに	-10.1758
環境問題	-10.1771
の解明	-10.1774
事業者に対して	-10.1779
なか	-10.1781
養殖	-10.1804
円滑	-10.1805
に参加する	-10.1813
令和元年度は	-10.1819
バス	-10.1841
面から	-10.1859
二次	-10.1875
社会教育	-10.1875
の選定	-10.1876
システムの運用	-10.1879
に反映する	-10.1885
続け	-10.1898
所要	-10.1902
保有する	-10.1916
を確実に	-10.1919
困難な	-10.1926
最高	-10.1933
発注	-10.1942
閣議決定	-10.1956
国民の理解	-10.1958
交流事業	-10.1961
準	-10.1963
由	-10.1963
排出抑制	-10.1963
復	-10.1965
遺産	-10.1965
兵器	-10.1966
況	-10.1966
則	-10.1967
良	-10.1967
話	-10.1968
降	-10.1968
遺伝資源	-10.1968
濫	-10.1969
運行	-10.1969
WTO	-10.1969
ぐ	-10.1969
伐	-10.197
男女共同参画	-10.197
g	-10.197
アフガニスタン	-10.197
取扱い	-10.197
捕獲	-10.197
コンサルティング	-10.1971
就職氷河期世代	-10.1971
モビリティ	-10.1971
現象	-10.1971
うえで	-10.1971
ローカル	-10.1971
高年齢者	-10.1971
アセスメント	-10.1971
Q	-10.1971
簡易	-10.1971
愛	-10.1971
ステーション	-10.1971
手数料	-10.1971
在宅就業	-10.1971
があった	-10.1972
的確に	-10.1972
タンク	-10.1972
の趣旨	-10.1972
苦情	-10.1972
排除	-10.1972
旅券	-10.1972
延長	-10.1972
採取	-10.1973
ごみ	-10.1973
図書館	-10.1973
地球規模の	-10.1974
低利	-10.1975
出荷	-10.1975
証明	-10.1975
労働安全衛生	-10.1976
を見据えた	-10.1978
環境負荷	-10.1978
が連携し	-10.1979
指数	-10.1979
下記	-10.198
関係府省	-10.198
労働条件	-10.1984
を拠出し	-10.1986
集中的に	-10.1987
の進捗	-10.1988
用具	-10.1989
ナー	-10.1991
健康づくり	-10.1993
資金調達	-10.1993
得る	-10.1994
内外	-10.1996
の円滑な運営	-10.2005
工学	-10.2005
出産	-10.2005
診療所	-10.2008
将来的な	-10.2017
PS	-10.2021
長期的な	-10.2023
状況を把握し	-10.2033
全国的に	-10.2038
本件事業は	-10.2039
事業番号	-10.204
を促進することにより	-10.2044
地域保健	-10.2046
に委託して	-10.2052
の開拓	-10.2062
していくこと	-10.2062
費用の一部を補助する	-10.2076
の実現に向けて	-10.2076
リスク管理	-10.2087
を行う必要がある	-10.2096
参加国	-10.2097
サービスを提供する	-10.21
を求める	-10.2102
会議の開催	-10.2107
し得る	-10.2125
を向上させ	-10.2135
アンケート調査	-10.2135
自主的	-10.2138
優良事例	-10.2142
最大化	-10.2146
に努め	-10.2148
資質の向上	-10.2158
消費生活	-10.2177
育児	-10.2179
どのような	-10.2182
とされ	-10.2183
特別措置法	-10.2185
連携強化	-10.221
促進に向けた	-10.2211
計画的な	-10.2212
途上国における	-10.2216
我が国と	-10.2221
票	-10.2224
に設置された	-10.2227
を行う場合	-10.224
脱炭素社会	-10.2246
を抱え	-10.2251
問題解決	-10.2258
確実	-10.2258
課題を解決するため	-10.226
先進的な取組	-10.2265
システムを構築する	-10.2269
行政事務	-10.2274
低コスト	-10.2279
革新	-10.2285
ネットワーク化	-10.2292
効	-10.2303
を構築するため	-10.2304
司	-10.2305
を実施するために必要な	-10.2305
きめ細か	-10.2306
植	-10.2309
大量破壊兵器	-10.231
被害者の	-10.2311
ぶ	-10.2311
枠	-10.2312
X	-10.2312
済	-10.2313
駐	-10.2314
石	-10.2314
ガバメント	-10.2314
循環型社会	-10.2314
床	-10.2314
販路	-10.2314
英	-10.2314
ヘルス	-10.2314
をめぐる	-10.2314
明らか	-10.2314
太陽光発電	-10.2315
w	-10.2315
ブランド	-10.2315
に携わる	-10.2315
ガイド	-10.2315
水俣病	-10.2315
投票	-10.2315
美術館	-10.2315
隻	-10.2315
株式会社日本政策金融公庫	-10.2315
放射能	-10.2315
優秀な	-10.2315
公共職業安定所	-10.2315
ステークホルダー	-10.2316
国立感染症研究所	-10.2316
本格的な	-10.2316
ゲノム	-10.2316
造船	-10.2316
に充てる	-10.2316
渡航	-10.2316
祭	-10.2316
様式	-10.2316
ジェット	-10.2316
リング	-10.2317
ウェ	-10.2317
偏在	-10.2317
事象	-10.2317
経年劣化	-10.2317
傷病	-10.2317
意思決定	-10.2318
備品	-10.2319
識別	-10.232
公演	-10.232
に所在する	-10.2322
沖縄振興	-10.2322
部材	-10.2323
洋上	-10.2323
事業承継	-10.2326
週間	-10.2327
の電子化	-10.2327
199	-10.233
との協力	-10.2334
以下の取組	-10.2335
適合性	-10.2339
進めるため	-10.2342
政策の立案	-10.2342
同士	-10.2345
我が国にとって	-10.2346
アル	-10.235
に寄与するため	-10.2357
最先端の	-10.2362
利用できる	-10.2364
化学物質管理	-10.2365
への出席	-10.2374
土地利用	-10.2374
水資源	-10.2376
精神障害者	-10.2377
所管する	-10.2378
に求められる	-10.2386
者等に対し	-10.2392
政策課題	-10.2395
府省	-10.2403
再構築	-10.2414
情報を提供する	-10.2419
を行うために必要な	-10.2424
検討等を行う	-10.2429
をもたらす	-10.2434
に規定する	-10.2437
公害防止	-10.2451
持続可能な開発目標	-10.2454
を形成し	-10.2454
予防対策	-10.2456
医薬品等の	-10.2456
政策の企画	-10.2457
セキュリティ対策	-10.2458
省内	-10.2475
得	-10.2481
状況を把握する	-10.2481
が負担する	-10.2483
を選択	-10.2484
を早期に	-10.2496
を講じる	-10.2497
安心な	-10.2516
安全かつ	-10.2523
国立大学法人等	-10.2527
感染拡大	-10.2532
就労支援	-10.2535
が不可欠である	-10.2542
学校における	-10.2549
を向上させるため	-10.256
等を行うための	-10.256
一時金	-10.2562
を推進することを目的とする	-10.2568
に関する研究開発	-10.2568
プロ	-10.2576
をとりまとめ	-10.2584
調査検討	-10.2588
の実現のため	-10.2588
研修プログラム	-10.2594
日中	-10.2596
大きく	-10.2601
37	-10.2604
社会人	-10.2606
につなげるため	-10.2617
協	-10.2619
技術の導入	-10.2623
責務	-10.263
基	-10.2639
を示す	-10.2648
各大学	-10.2652
の実現を目指す	-10.2656
複雑	-10.2656
原子力発電	-10.2662
習	-10.2663
強化のため	-10.2664
が多く	-10.2664
合わせ	-10.2666
人間の安全保障	-10.2667
に際し	-10.2667
麦	-10.2669
為	-10.267
位置づけ	-10.2671
を進めていく	-10.2671
に沿った	-10.2671
骨	-10.2671
義務づけ	-10.2671
を中心とする	-10.2672
審判	-10.2672
獣	-10.2672
を速やかに	-10.2672
首	-10.2672
欠	-10.2672
トラブル	-10.2672
捕	-10.2672
参照	-10.2672
テレビ	-10.2672
突	-10.2672
顕	-10.2672
履歴	-10.2672
メンテナンス	-10.2672
盛	-10.2672
事業開始年度	-10.2672
経済協力開発機構	-10.2673
手法の検討	-10.2673
木造	-10.2673
の有無	-10.2673
一貫した	-10.2673
速やかな	-10.2673
経済連携協定	-10.2673
を図っていく	-10.2673
トレーニング	-10.2673
学習指導要領	-10.2674
受診	-10.2674
住居	-10.2674
選考	-10.2674
必要があり	-10.2674
アップ	-10.2675
照会	-10.2675
畜産物	-10.2677
国民の生命	-10.2677
手引き	-10.2678
ニア	-10.2678
近代	-10.2679
小児	-10.2679
目標達成	-10.268
月豪雨	-10.2681
可能性がある	-10.2683
行事	-10.2688
人材養成	-10.2688
機材	-10.2688
採択された	-10.2692
早期発見	-10.2694
ステ	-10.2698
主要国	-10.27
ニーズを踏まえた	-10.2704
介護施設	-10.2706
機会を提供する	-10.2706
を策定し	-10.2707
全国展開	-10.2707
輸出入	-10.2707
基礎資料を得ることを目的とする	-10.2707
有害性	-10.2708
障害福祉	-10.2708
現場における	-10.271
実証実験	-10.272
データ収集	-10.2741
体系的に	-10.2753
老朽化した	-10.2753
の資質向上	-10.2762
国民経済	-10.2763
を加速する	-10.2766
に関する情報収集	-10.2776
都道府県等が	-10.2782
を行うために	-10.2788
知見を有する	-10.2793
国別	-10.28
面での	-10.2807
陸上	-10.2827
動向調査	-10.2832
諸問題	-10.2837
を形成する	-10.2839
各地域の	-10.2843
いる	-10.2859
国費	-10.2861
自主	-10.2862
事業継続	-10.2879
促進のための	-10.2889
用水	-10.2906
OS	-10.2915
生産現場	-10.2922
自立的	-10.2938
安全で	-10.2941
工事費	-10.2955
年から	-10.2967
の実現に向け	-10.2969
うる	-10.2973
農林漁業	-10.2977
を得て	-10.2978
特別区	-10.298
必要性	-10.2986
水位	-10.299
技術開発を行う	-10.2997
財団	-10.2997
供	-10.3012
技術を開発する	-10.302
作成した	-10.3023
満	-10.3029
客観的	-10.303
へき地	-10.3032
べ	-10.3034
参	-10.3034
援	-10.3038
想	-10.3039
税関	-10.3039
花粉	-10.3041
却	-10.3041
懸念	-10.3041
防疫	-10.3041
遺伝子	-10.3041
載	-10.3041
大きい	-10.3041
御	-10.3042
食糧	-10.3042
井	-10.3042
ポスター	-10.3042
信託基金	-10.3042
UNEP	-10.3042
ワーキング	-10.3042
在日米軍	-10.3042
被爆者	-10.3043
微	-10.3043
英語	-10.3043
運輸部門	-10.3043
リモート	-10.3043
ation	-10.3043
草	-10.3043
試験を実施した後	-10.3043
パラリンピック競技大会	-10.3043
証拠	-10.3043
原爆被爆者	-10.3043
なかった	-10.3043
パワー	-10.3043
分かりやすく	-10.3044
研究を終了	-10.3044
解説	-10.3044
試料	-10.3044
早急に	-10.3044
インドネシア	-10.3044
ゲリラや特殊部隊による攻撃	-10.3044
地盤沈下	-10.3044
公益財団法人	-10.3044
武道	-10.3044
誘導弾	-10.3045
石炭	-10.3045
マスク	-10.3045
遅れ	-10.3045
除雪	-10.3045
艦船	-10.3045
接種	-10.3045
んだ	-10.3046
作業部会	-10.3046
芸術家	-10.3046
受信	-10.3046
機運	-10.3046
を想定した	-10.3046
共済組合	-10.3047
切れ	-10.3048
キャリア形成	-10.3049
急増	-10.3049
食育	-10.3049
に要する経費を補助する	-10.3051
自然環境保全	-10.3053
無線局	-10.3054
2050	-10.3054
包括的な	-10.3058
区分	-10.3059
原子力発電施設等	-10.3063
技術革新	-10.3064
科学技術イノベーション	-10.3065
多様な主体	-10.3066
を目指した	-10.3069
国際競争力の強化	-10.3071
健康保険	-10.3072
健康診断	-10.3073
毒性	-10.3075
問題点	-10.3075
適時	-10.3094
国内外における	-10.3104
のための研修	-10.3104
関係国	-10.3108
低炭素化	-10.3114
出生	-10.3115
制度改正	-10.312
観光地	-10.3124
取組事例	-10.3125
実証試験	-10.3127
持続的に	-10.3129
年代	-10.3135
を図るためには	-10.3136
外交政策	-10.3141
単位で	-10.3167
ことのできる	-10.3172
得られる	-10.3175
機能の強化	-10.3181
を展開する	-10.3186
機動的に	-10.3194
熱帯	-10.3194
取り組むべき	-10.3201
-2	-10.3206
年度までに	-10.3215
住民の生活	-10.3219
都道府県警察	-10.3222
インド	-10.3244
補助を行い	-10.3253
防衛施設	-10.3265
PF	-10.3275
推進のための	-10.3298
していくために	-10.3311
教育プログラム	-10.3331
が不可欠	-10.3332
対象国	-10.3345
オープン	-10.3353
きた	-10.3366
アジア太平洋	-10.3375
融	-10.3389
要素技術	-10.3398
領	-10.342
っており	-10.3422
豚	-10.3423
布	-10.3423
探	-10.3424
ヒ	-10.3424
私	-10.3424
簿	-10.3424
クラス	-10.3424
望	-10.3425
揚	-10.3425
菌	-10.3426
つながり	-10.3426
鑑	-10.3426
鉱物資源	-10.3426
パンフレット	-10.3426
ひ	-10.3426
苦	-10.3427
児童虐待	-10.3427
倍	-10.3427
漏	-10.3427
リソース	-10.3427
テスト	-10.3427
メリット	-10.3427
非常に	-10.3427
マルチ	-10.3427
国際平和協力	-10.3427
必要とされる	-10.3427
対外発信	-10.3427
産業財産権	-10.3427
満足度	-10.3427
再発防止	-10.3427
閉	-10.3427
掲載	-10.3427
壊	-10.3427
フロン	-10.3427
院内感染	-10.3427
ツーリズム	-10.3428
粉	-10.3428
薬剤耐性	-10.3428
汎用	-10.3428
勘定	-10.3428
貴重な	-10.3428
ヘリコプター	-10.3428
厚生年金保険	-10.3428
集中豪雨	-10.3428
創意工夫	-10.3428
パートナー	-10.3428
都道府県労働局	-10.3428
循環器病	-10.3429
葉	-10.3429
OSCE	-10.3429
固定	-10.3429
を持って	-10.3429
項の規定に基づき	-10.343
負担を軽減する	-10.343
ゴム	-10.343
ダム	-10.343
母子	-10.343
海運	-10.3432
食肉	-10.3432
病棟	-10.3432
経路	-10.3432
ッド	-10.3432
日露	-10.3434
送電	-10.3434
海底	-10.3434
補強	-10.3435
新築	-10.3435
海上輸送	-10.3438
8/10	-10.3438
食品表示	-10.3439
も含めた	-10.3439
を実施して	-10.3439
セミナーの開催	-10.344
ックス	-10.3445
の確保のため	-10.3447
ことなく	-10.3447
優良な	-10.3449
不安定	-10.3453
観光振興	-10.3454
事実	-10.3461
廃棄物処理施設	-10.3463
設備投資	-10.3465
都市部	-10.3469
国々	-10.3471
システム構築	-10.3471
を活用しつつ	-10.3477
が生じている	-10.3481
地点	-10.3483
体系的	-10.3483
地質	-10.3487
国際会議等	-10.3492
広く国民に	-10.3508
提供することで	-10.3517
均等	-10.3527
を確保するために	-10.3528
提供することにより	-10.3545
財政支援	-10.3562
主として	-10.3564
を達成する	-10.3568
人材の確保	-10.3571
を確認し	-10.3583
国立大学法人	-10.3586
職業相談	-10.3588
を最大限に	-10.3598
の両立	-10.3624
産業の振興	-10.3624
安全性向上	-10.3638
実施するとともに	-10.3643
効率性	-10.3647
ことを目的とし	-10.365
等に要する費用	-10.3653
相談対応	-10.367
FS	-10.3675
以下の事業を実施する	-10.3688
に対応できる	-10.3691
能力の向上を図る	-10.3692
を共有する	-10.3692
75	-10.3701
かかる	-10.3702
提供している	-10.3703
出席	-10.3713
公共施設	-10.373
替	-10.3738
が増加し	-10.3752
実現に資する	-10.3753
水中	-10.3764
就	-10.3771
に資することを目的としている	-10.3774
が直面する	-10.3779
課題への対応	-10.3779
後も	-10.3798
を活かし	-10.3811
帰	-10.3813
を示し	-10.3814
識	-10.3822
復帰	-10.3823
括	-10.3823
赤十字	-10.3824
刑	-10.3824
を始め	-10.3824
管理栄養士	-10.3824
ライフスタイル	-10.3825
激甚化	-10.3825
破	-10.3825
楽	-10.3826
南極	-10.3826
ホ	-10.3826
通常兵器	-10.3826
候	-10.3826
ゴ	-10.3826
風力発電	-10.3826
崩壊	-10.3826
急速な	-10.3826
携帯電話	-10.3827
緊急事態	-10.3827
汚	-10.3827
PCB	-10.3827
依頼	-10.3827
正しい	-10.3827
若しくは	-10.3827
例えば	-10.3827
液	-10.3827
に繋げる	-10.3827
講演会	-10.3827
依然として	-10.3827
著	-10.3828
シンクタンク	-10.3828
の簡素化	-10.3828
野生鳥獣	-10.3828
後期高齢者医療	-10.3828
▁東日本大震災により被災した	-10.3828
理由	-10.3828
オーバーホール	-10.3828
キャッシュレス決済	-10.3828
違法	-10.3828
が一体となって	-10.3828
不拡散	-10.3828
服	-10.3828
を持った	-10.3828
兆円	-10.3828
賃貸住宅	-10.3828
エコノミー	-10.3828
を醸成する	-10.3828
破壊	-10.3828
特別支援学校	-10.3829
になっている	-10.3829
STI	-10.3829
▁本事業の最終目的は	-10.3829
教育課程	-10.3829
空調	-10.3829
インター	-10.3829
おそれがある	-10.3831
検知	-10.3831
開示	-10.3832
投入	-10.3833
定量	-10.3834
集落	-10.3834
生物多様性保全	-10.3834
被害の軽減	-10.3835
収容	-10.3835
送付	-10.3836
北部	-10.3836
分散型	-10.3836
働き	-10.3836
多面的機能	-10.3836
分解	-10.3837
解体	-10.3837
実際の	-10.3839
消費税	-10.3839
役割を果たす	-10.3841
用いる	-10.3841
構成員	-10.3842
補正	-10.3843
より効果的な	-10.3846
水循環	-10.3846
人命	-10.3847
2015	-10.3847
通行	-10.3847
発現	-10.3848
流入	-10.3848
短	-10.3849
自主的な	-10.3851
公立	-10.3852
に必要な経費を補助する	-10.3852
地熱	-10.3859
構造物	-10.3863
社会全体	-10.3865
経費の一部を補助する	-10.3866
適性	-10.3868
グローバルな	-10.3869
推進するため	-10.3869
ベンチャー企業	-10.3871
各国政府	-10.3872
水害	-10.3879
80	-10.3883
広く国民	-10.3887
拠点となる	-10.3891
行政サービス	-10.3892
を抱える	-10.3904
基本調査	-10.3905
が大きく	-10.3908
インフラ整備	-10.3912
失業	-10.3918
諸外国との	-10.3919
に対する研修	-10.3927
を進めるとともに	-10.3931
させることにより	-10.3941
の具体化	-10.3945
いて	-10.3954
の推進に関する法律	-10.3955
その後	-10.3961
建設現場	-10.3962
を与え	-10.3974
に関する特別措置法	-10.3987
を選定し	-10.4004
の取組について	-10.4018
輸出促進	-10.4032
ための経費	-10.4039
技術シーズ	-10.4048
我が国から	-10.4048
示す	-10.405
公表を行う	-10.4101
のあり方について	-10.4134
モデルの構築	-10.414
負担率	-10.4154
定めた	-10.4158
求め	-10.4159
借上	-10.417
諸課題	-10.4182
国有	-10.4183
ついて	-10.4195
おそれ	-10.4196
旅行者	-10.4199
ヶ	-10.4206
行政手続	-10.421
知識の普及	-10.4227
給付費	-10.4233
を見据え	-10.4235
貨	-10.4239
セクター	-10.424
酒	-10.4241
走	-10.4241
脳	-10.4241
維持整備	-10.4242
大学等における	-10.4242
歯	-10.4242
幅	-10.4242
雑	-10.4243
婚	-10.4243
境界	-10.4243
勤	-10.4243
費用対効果	-10.4243
依	-10.4243
ポスト	-10.4243
戻	-10.4243
ろ	-10.4244
×	-10.4244
荒廃	-10.4244
リハビリテーション	-10.4244
を防ぐ	-10.4244
サーバ	-10.4244
煙	-10.4244
身近な	-10.4244
の高まり	-10.4244
に役立てる	-10.4244
明確化	-10.4244
佐	-10.4244
無担保	-10.4245
顕著な	-10.4245
可動率	-10.4245
世論	-10.4245
覧	-10.4245
決算	-10.4245
満たす	-10.4245
診療報酬改定	-10.4245
送信	-10.4245
ing	-10.4245
頻度	-10.4245
慢性	-10.4245
ワンストップ	-10.4246
億円	-10.4246
協同組合	-10.4246
貸与	-10.4246
幼児教育	-10.4246
地盤	-10.4246
介護従事者の確保	-10.4246
新型インフルエンザ	-10.4246
UNDP	-10.4246
雇用保険	-10.4246
予備	-10.4246
農林水産大臣	-10.4246
湿地	-10.4247
液状化	-10.4247
出来る	-10.4247
周辺海域	-10.4247
教室	-10.4247
連結	-10.4247
を重点的に	-10.4248
推定	-10.4248
木質	-10.4249
の流れ	-10.4249
超過	-10.425
納税	-10.4251
原子力発電所	-10.4251
外国人留学生	-10.4251
一定期間	-10.4252
畜	-10.4254
資源循環	-10.4255
組成	-10.4255
ビル	-10.4256
in	-10.4257
の着実な実施	-10.4258
労働組合	-10.426
365	-10.4261
不明	-10.4262
検出	-10.4265
多発	-10.4269
公正な	-10.427
国際共同研究	-10.4272
で使用する	-10.4276
に供する	-10.4276
体制を強化する	-10.4283
能力構築	-10.4286
質の高いインフラ	-10.4288
既に	-10.4288
低い	-10.4293
歳以上	-10.4297
へのアクセス	-10.4301
人事	-10.4302
設備の導入	-10.4325
買い	-10.4327
グローバル化	-10.4329
新エネルギー	-10.4338
科学的な	-10.4346
航路	-10.4358
ために必要な経費	-10.4358
対応策	-10.4373
年度から平成	-10.4377
基盤の強化	-10.4389
が進む	-10.4396
施策の検討	-10.4408
能力開発	-10.4412
1/2、1/3	-10.4416
理解の増進	-10.4427
を利用して	-10.4448
安全性の確保	-10.4452
目的で	-10.4456
食品産業	-10.448
府	-10.4487
ャ	-10.4501
を推進していく	-10.4524
に関する情報の収集	-10.4533
を整理する	-10.454
実務者	-10.4556
均	-10.4568
優れた技術	-10.4608
科学者	-10.4615
森林整備	-10.4623
水域	-10.4644
着実に推進し	-10.4658
技能者	-10.466
負荷	-10.4663
荷	-10.4665
処	-10.4668
抜本的	-10.4669
露	-10.4671
分散	-10.4673
剤	-10.4676
放射	-10.4676
誘致	-10.4676
地域循環共生圏	-10.4677
労務管理	-10.4677
駅	-10.4677
ギ	-10.4677
労働基準監督署	-10.4677
合併	-10.4677
酸	-10.4678
リテラシー	-10.4678
ざ	-10.4678
磁	-10.4678
誌	-10.4678
を巡る	-10.4678
フード	-10.4678
最小化	-10.4678
抑止	-10.4678
警戒監視	-10.4678
ポンプ	-10.4678
中国残留邦人等	-10.4678
優位性	-10.4678
活力ある	-10.4679
皇	-10.4679
フィリピン	-10.4679
甚大な被害	-10.4679
首都直下地震	-10.4679
多岐にわた	-10.4679
夜間	-10.4679
敷	-10.4679
希少	-10.4679
詳細な	-10.4679
農業用用排水施設	-10.4679
JCM	-10.4679
が持つ	-10.4679
高付加価値化	-10.4679
波浪	-10.4679
台湾	-10.468
ツ	-10.468
富	-10.468
劇場	-10.468
を果たし	-10.468
厚生労働科学研究	-10.468
良質な	-10.468
商標	-10.468
特殊災害等	-10.468
生活習慣病	-10.468
聴覚	-10.4681
南海トラフ地震	-10.4681
弾道ミサイル	-10.4681
記念	-10.4681
広島	-10.4681
犯罪被害者等	-10.4681
命令	-10.4681
展望	-10.4681
地域経済の活性化	-10.4682
地すべり	-10.4682
北極	-10.4682
射撃	-10.4682
ナノ	-10.4682
国費率	-10.4683
流域	-10.4685
を生かし	-10.4686
スマート農業	-10.4686
安心を確保するため	-10.4687
月閣議決定	-10.4687
専門医	-10.4687
コスト低減	-10.4687
原油	-10.469
研究及び開発	-10.4692
を超える	-10.4693
本条約	-10.4694
生育	-10.4696
短期大学	-10.4697
労働時間	-10.4705
雇用創出	-10.4705
含有	-10.4706
生活衛生	-10.4709
体制を構築し	-10.4712
基盤的研究	-10.4714
料金	-10.4715
動き	-10.4715
COP	-10.4717
ネットワーク構築	-10.472
ユネスコ活動	-10.4722
求められる	-10.4723
学校法人	-10.4728
必要な経費	-10.4736
を創設し	-10.4749
国庫	-10.476
計画を策定し	-10.484
政府機関	-10.4845
普及展開	-10.4847
ビジネスモデル	-10.4848
関係機関との	-10.485
への参画	-10.4855
機能維持	-10.4882
生産基盤	-10.4884
経営安定	-10.4888
の推進を図るため	-10.4891
責任者	-10.4897
若年者	-10.4914
新型コロナウイルス感染症の拡大	-10.4936
に貢献するため	-10.4966
世界各国	-10.4985
との調整	-10.4991
既設	-10.4997
補給金	-10.4999
厚生労働省において	-10.5012
入所者	-10.5022
を実施するものである	-10.505
あたり	-10.5055
方策の検討	-10.5066
境	-10.51
洋	-10.5121
燃	-10.5123
就農	-10.5125
球	-10.5125
散	-10.5128
薬物乱用	-10.5128
固	-10.5128
番	-10.5128
犯	-10.5129
操	-10.513
焼	-10.513
長時間労働	-10.5131
旨	-10.5132
占	-10.5132
少なく	-10.5132
から構成される	-10.5132
導入拡大	-10.5132
つなげ	-10.5132
法の支配	-10.5132
弁護士	-10.5132
太	-10.5132
FAO	-10.5133
ひきこもり	-10.5133
砂	-10.5133
割を占める	-10.5133
ゲ	-10.5133
里	-10.5133
鋼	-10.5133
子供たち	-10.5133
アスリート	-10.5133
に比べ	-10.5133
神	-10.5133
慣	-10.5133
日系企業	-10.5133
インパクト	-10.5133
ステージ	-10.5134
遇	-10.5134
いわゆる	-10.5134
国土強靱化	-10.5134
で構成される	-10.5134
労使関係	-10.5134
耐震性	-10.5134
デザイン	-10.5134
好循環	-10.5134
サポーター	-10.5134
を身に付け	-10.5134
日本政策金融公庫	-10.5134
水力発電	-10.5134
友	-10.5134
パッケージ	-10.5134
をいう	-10.5135
サイエンス	-10.5135
膨大な	-10.5135
日本原子力研究開発機構	-10.5135
アクション	-10.5135
領土	-10.5135
農畜産物	-10.5135
認知症	-10.5135
ゲート	-10.5135
薬剤	-10.5135
を迎え	-10.5136
PKO	-10.5136
ジャ	-10.5136
を始めとした	-10.5136
泊	-10.5136
勤務環境の改善	-10.5137
サイバー空間	-10.5137
卒業	-10.5137
測位	-10.5137
文化遺産	-10.5137
解除	-10.5137
領事	-10.5137
補助金を交付する	-10.5138
合意形成	-10.5138
CTCN	-10.5138
防空	-10.5138
比率	-10.5139
野菜	-10.5139
を活かして	-10.514
即時	-10.514
特許庁	-10.514
専門的知識	-10.5142
動画	-10.5143
独立行政法人国立	-10.5144
とも連携し	-10.5145
構成品	-10.5145
方策を検討する	-10.5146
職種	-10.5147
平和構築	-10.5148
キー	-10.5151
を受けている	-10.5152
このような状況	-10.5152
警察庁	-10.5152
資本	-10.5158
EV	-10.516
本事業の目的	-10.5161
条に基づく	-10.5165
水際	-10.5165
保険給付	-10.5167
文化庁	-10.5168
将来的に	-10.517
具体	-10.5181
森林資源	-10.5185
世界的に	-10.5208
適正使用	-10.5236
緊急的な	-10.5245
への対処	-10.5245
法務	-10.5277
太平洋地域	-10.5301
電話相談	-10.5322
民間委託	-10.5326
促進を図るため	-10.5355
の調査分析	-10.5357
宿泊施設	-10.5366
ed	-10.5377
温室効果ガス排出	-10.5428
分析結果	-10.5481
ことが求められている	-10.5491
路線	-10.5495
専門的知見	-10.5502
を招へいし	-10.5531
会場	-10.5531
水防	-10.5543
の目的である	-10.5543
社会資本	-10.5555
潮	-10.5563
感染拡大防止	-10.5566
段階で	-10.5567
安心の確保	-10.5569
に取り組んでいる	-10.5594
レジリエンス	-10.5602
殺	-10.5602
ェ	-10.5605
授与	-10.5605
漁協	-10.5606
託	-10.5607
回線	-10.5607
手順	-10.5607
刑務所	-10.5607
アドバイス	-10.5607
シナリオ	-10.5608
砂防	-10.5608
矯正施設	-10.5608
マンション	-10.5608
メンタルヘルス	-10.5608
建造	-10.5608
日中韓	-10.5608
答	-10.5608
ジョブ	-10.5609
を組み合わせた	-10.5609
公衆	-10.5609
到達	-10.5609
返済	-10.5609
SNS	-10.5609
新しい生活様式	-10.5609
ジャパン	-10.5609
著作権	-10.5609
停止	-10.5609
大幅に	-10.5609
指摘され	-10.5609
国土交通大臣	-10.5609
をリード	-10.561
ルート	-10.561
役割分担	-10.561
脱	-10.561
ファンド	-10.561
柔軟な	-10.561
柔軟に	-10.561
づ	-10.561
災害に強い	-10.561
漁村	-10.561
暴力的過激主義	-10.561
原子炉	-10.561
被ばく	-10.561
セーフティネット	-10.561
アルコール	-10.561
銃	-10.561
干	-10.561
EBPM	-10.561
随時	-10.561
を備えた	-10.561
位置付け	-10.561
将来の装備品等	-10.561
宗教	-10.561
独自の	-10.561
支弁	-10.5611
必須	-10.5611
視点から	-10.5611
番組	-10.5611
人工呼吸器	-10.5611
が著しく	-10.5611
乳幼児	-10.5611
介護給付費	-10.5611
ユニット	-10.5611
受験	-10.5611
厚生労働行政	-10.5611
修復	-10.5612
若手研究者	-10.5612
固有	-10.5613
機能分化	-10.5613
受注	-10.5613
生物多様性の保全	-10.5613
症状	-10.5613
の認定を受けた	-10.5613
を円滑に実施するため	-10.5614
燃費	-10.5614
魅力的な	-10.5614
論点	-10.5614
公立学校	-10.5615
と連携しながら	-10.5615
府省共通	-10.5618
方々	-10.5619
間接	-10.562
特別会計	-10.562
公社	-10.5621
抜本的な	-10.5621
を行った上で	-10.5622
国民運動	-10.5622
差別	-10.5622
定期検査	-10.5624
指定金融機関	-10.5624
土地取引	-10.5627
非行	-10.5627
6/10	-10.5628
算出	-10.5629
感染症の発生	-10.563
本事業においては	-10.563
流動	-10.5632
基本法第	-10.5634
給水	-10.564
を占める	-10.564
業界団体	-10.5643
と協力し	-10.5646
の整備及び運用	-10.5646
各界	-10.5646
が参加する	-10.5648
中長期的	-10.5648
職業生活	-10.5649
無人	-10.565
委託先	-10.565
社会保険	-10.5666
得られた知見	-10.5669
看護職員	-10.5671
を促進させる	-10.5677
を可能とし	-10.5678
最新の知見	-10.5686
への即応	-10.5691
農林漁業者	-10.5694
を雇用する	-10.5697
そのためには	-10.5699
各地で	-10.5737
見込まれる	-10.5738
作品	-10.5748
着実に	-10.5761
農業者等	-10.5805
技術の研究開発	-10.5809
の達成に向け	-10.5821
技術を確立する	-10.5822
以下の取組を実施	-10.5827
までの間	-10.583
行われ	-10.5849
両立支援	-10.586
の振興を図る	-10.5861
課題に対応するため	-10.5875
エコ	-10.5894
法制	-10.5898
借入金	-10.5908
が可能となる	-10.591
向上を図るとともに	-10.5931
衛星通信	-10.5933
ことが可能となる	-10.5956
の規定に基づく	-10.5974
を運営する	-10.5984
求める	-10.6017
必要があるため	-10.6018
が見込まれ	-10.6021
借入	-10.6034
プログラムの開発	-10.6035
を開始し	-10.6053
活躍できる	-10.6055
を改善する	-10.6061
に派遣し	-10.6064
を支え	-10.6066
場面	-10.6078
刑事	-10.608
法の規定	-10.6087
舎	-10.6095
様	-10.6096
介護報酬改定	-10.6096
傾	-10.6104
衛	-10.6104
諮問	-10.6106
振	-10.6106
地熱発電	-10.6107
明確に	-10.6107
終	-10.6107
脆弱な	-10.6108
略	-10.6108
崩	-10.6108
短縮	-10.6108
中心市街地	-10.6108
DNA	-10.6108
フィードバック	-10.6108
父	-10.6108
輪	-10.6108
福岡	-10.6108
熱中症	-10.6109
が懸念されている	-10.6109
探鉱	-10.6109
滑	-10.6109
オゾン層	-10.6109
教科書	-10.6109
刊	-10.6109
Web	-10.6109
ハードウェア	-10.6109
ストレス	-10.6109
右	-10.6109
コーディネーター	-10.6109
高まる	-10.6109
。5/10	-10.6109
音楽	-10.611
マーケティング	-10.611
甲	-10.611
余	-10.611
有用な	-10.611
視覚障害者	-10.611
厚生労働省に提出される	-10.611
を強力に	-10.611
にわたって	-10.611
海難救助	-10.611
ナショナル	-10.611
IPCC	-10.611
激甚災害	-10.611
GAP	-10.611
スーパー	-10.611
水産加工業	-10.611
山村	-10.611
ツアー	-10.611
が不足している	-10.611
改築	-10.611
▁厳しさを増す安全保障環境	-10.6111
テクノロジー	-10.6111
奨励	-10.6111
当事者	-10.6111
正社員	-10.6111
懇	-10.6111
ケーブルテレビ	-10.6111
橋渡し	-10.6111
幹部自衛官	-10.6111
誇	-10.6111
朝	-10.6111
途絶	-10.6111
特色ある	-10.6111
開放	-10.6111
城	-10.6111
NET	-10.6111
誘客	-10.6111
北方領土	-10.6112
奄美群島	-10.6112
特有の	-10.6112
政令指定都市	-10.6112
大都市圏	-10.6112
コンテスト	-10.6112
老齢	-10.6112
製剤	-10.6112
シンポジウムの開催	-10.6112
鉱山	-10.6113
バリューチェーン	-10.6113
肝炎ウイルス	-10.6113
施業	-10.6113
官署	-10.6113
チップ	-10.6113
最終処分	-10.6113
コメ	-10.6113
謝金	-10.6113
湖	-10.6114
副作用	-10.6114
核不拡散	-10.6114
教師	-10.6114
防衛装備庁	-10.6114
ドーピング防止	-10.6114
を担当する	-10.6114
90	-10.6114
ha	-10.6114
連続	-10.6115
米軍	-10.6116
商取引	-10.6117
社会福祉法人	-10.6117
雇用管理改善	-10.6118
進路	-10.6118
こととなった	-10.6118
任務遂行	-10.6118
基準値	-10.6122
青年	-10.6123
面接	-10.6124
プラント	-10.6127
裁判所	-10.6128
基礎年金	-10.6128
防衛装備品	-10.6129
が策定する	-10.6129
の一部を助成する	-10.6131
自発的	-10.6131
中止	-10.6132
の地位	-10.6133
が連携した	-10.6136
適正かつ円滑	-10.6138
戦略策定	-10.6139
計量	-10.6139
ニーズに応じた	-10.6142
講習会の実施	-10.6142
機会の創出	-10.6143
の一つである	-10.6144
地価	-10.6145
部会	-10.6145
土砂災害	-10.6145
300	-10.6147
資金拠出	-10.6148
鑑定評価	-10.6148
エネルギー安全保障	-10.6148
国際比較	-10.6154
地域公共交通	-10.6155
発注者	-10.6159
LP	-10.616
広域連携	-10.6161
政策対話	-10.6161
得られた成果	-10.6161
国内外への	-10.6165
に出席し	-10.6169
に使用する	-10.6172
理学	-10.6175
養成研修	-10.6178
とのマッチング	-10.6189
を達成し	-10.6229
調査及び研究	-10.6239
の安全を確保する	-10.6244
事務の効率化	-10.6255
温室効果ガスの排出	-10.6274
施設の維持管理	-10.6303
実行計画	-10.6308
共通基盤	-10.6312
新型コロナウイルス感染症の影響	-10.6323
に対して補助する	-10.6351
対策を講じ	-10.6357
養殖業	-10.6368
の中から	-10.6381
大規模災害時	-10.6381
生活習慣	-10.639
状況の調査	-10.64
負担割合	-10.6434
政府全体	-10.6457
を考慮し	-10.6462
告示	-10.6479
両面	-10.6484
商談	-10.6524
を補助し	-10.6525
体制の充実	-10.6579
費用を補助する	-10.6583
2。5	-10.6593
年金給付	-10.6616
疫	-10.6623
果	-10.663
署	-10.6631
ドーピング	-10.6631
監	-10.6632
触	-10.6634
一人ひとり	-10.6634
SAM	-10.6634
サテライトオフィス	-10.6634
の理念	-10.6634
マネー	-10.6634
血液製剤	-10.6634
心のケア	-10.6634
無償資金協力	-10.6634
バンク	-10.6635
資金の貸付け	-10.6635
言語	-10.6635
強靱化	-10.6635
トイレ	-10.6635
牧	-10.6635
意思	-10.6635
ホスト	-10.6635
架	-10.6635
偽	-10.6635
コースト構想	-10.6635
経済財政運営と改革の基本方針	-10.6635
Construction	-10.6635
を牽引する	-10.6635
アウト	-10.6636
地方環境事務所	-10.6636
味	-10.6636
を余儀なくされ	-10.6636
吸収量	-10.6636
浜	-10.6636
答申	-10.6636
に依存	-10.6636
正確に	-10.6636
GDP	-10.6636
毎月勤労統計	-10.6636
知識及び技能	-10.6636
治験	-10.6636
疎	-10.6636
無保証人	-10.6636
季節	-10.6636
アピール	-10.6636
飲	-10.6636
静	-10.6636
磨き上げ	-10.6636
株式会社	-10.6636
に沿って	-10.6636
次産業革命	-10.6636
やすく	-10.6636
温泉	-10.6636
証券	-10.6637
学識経験者	-10.6637
恩	-10.6637
になった	-10.6637
生ずる	-10.6637
PPP	-10.6637
移植	-10.6637
国立研究開発法人情報通信研究機構	-10.6637
過疎地域	-10.6637
荷役	-10.6637
が進んでいる	-10.6637
自給率	-10.6637
砲	-10.6637
筋	-10.6637
統制	-10.6637
を抽出し	-10.6637
雇い入れ	-10.6637
当事業は	-10.6638
に適した	-10.6638
移設	-10.6638
改造	-10.6638
警察署	-10.6639
駐屯地	-10.6639
自治	-10.6639
更生保護	-10.6639
振動	-10.6639
換装	-10.6639
鉱害	-10.6639
法務局	-10.6639
現況	-10.664
在庫	-10.664
介護サービス事業所	-10.664
民間セクター	-10.664
国連気候変動枠組条約	-10.664
こととし	-10.6642
現役	-10.6642
荷主	-10.6643
家計	-10.6643
DX	-10.6643
措置を講じる	-10.6644
空域	-10.6644
on	-10.6645
を保全する	-10.6645
に即し	-10.6648
候補者の	-10.6648
食品中の	-10.6652
石油製品	-10.6652
分離	-10.6653
ピー	-10.6654
発達障害者	-10.6658
外食	-10.666
不動産市場	-10.6661
定期的な	-10.6664
を補完する	-10.6665
刑事施設	-10.6669
地形	-10.667
有事	-10.667
が使用する	-10.6673
人的交流	-10.6677
本土	-10.6677
専門知識	-10.668
行われた	-10.6685
政府調達	-10.669
低コスト化	-10.6702
費補助	-10.6705
特性を踏まえた	-10.6705
資料の収集	-10.6728
検討会の開催	-10.6766
人材を育成するため	-10.6786
被災労働者	-10.68
研修会の開催	-10.6803
最先端	-10.6847
チャ	-10.6854
予想される	-10.6877
の基礎となる	-10.6885
ラジオ	-10.6895
健康保険組合	-10.6898
NEA	-10.6902
を分析する	-10.6905
新型コロナウイルス感染拡大	-10.6915
の所有	-10.6924
を向上する	-10.6927
ことが不可欠である	-10.6932
の実態を把握する	-10.6962
営業	-10.6964
進めていく	-10.6989
受給	-10.701
を及ぼす	-10.7038
を目的とし	-10.7046
に要する費用の一部	-10.7047
手法を開発する	-10.7072
を拡大する	-10.7087
イノベーション創出	-10.7102
建替	-10.7124
革	-10.715
輸	-10.7163
最適	-10.7166
されてきた	-10.7177
への拠出を通じ	-10.7182
新規就農	-10.7186
行動変容	-10.7186
債	-10.7186
北朝鮮	-10.7188
分科会	-10.7188
武	-10.7188
久	-10.7188
傷	-10.7189
門	-10.7189
巡	-10.7189
労働基準法	-10.7189
審	-10.7189
誘	-10.7189
被収容者	-10.719
執	-10.719
IFRC	-10.719
防衛力の整備を	-10.719
炭	-10.719
クラブ	-10.719
首都圏	-10.719
クリーン	-10.719
Y	-10.719
評	-10.7191
卸	-10.7191
必	-10.7191
思	-10.7191
姿	-10.7191
人口動態	-10.7191
シェア	-10.7191
節	-10.7191
メニュー	-10.7191
フィールド	-10.7191
を行っていく	-10.7191
暗	-10.7191
東日本大震災の被災地における	-10.7191
キャ	-10.7191
タスクフォース	-10.7191
林産物	-10.7191
に相当する額を	-10.7191
字	-10.7191
州	-10.7191
ベトナム	-10.7191
河	-10.7191
センシング	-10.7192
一人一人	-10.7192
介護サービスの提供体制	-10.7192
幕	-10.7192
配偶者	-10.7192
レセプト	-10.7192
キャッシュレス	-10.7192
鮮	-10.7192
耐震改修	-10.7192
つなぐ	-10.7192
無害化処理	-10.7192
機械器具	-10.7192
イスラエル	-10.7192
弁済	-10.7192
明日の日本を支え	-10.7192
混雑	-10.7192
豊	-10.7192
遮	-10.7192
ひっ迫	-10.7192
顧	-10.7192
かんが	-10.7192
ソーシャル	-10.7192
ヘ	-10.7192
副	-10.7192
乏しい	-10.7192
公営住宅	-10.7192
堤防	-10.7193
等の事業再開	-10.7193
島嶼部に対する侵略	-10.7193
損傷	-10.7193
完成	-10.7193
デバイス	-10.7193
平均	-10.7193
有明海	-10.7194
生活困窮者	-10.7194
国際園芸博覧会	-10.7194
キャリアアップ	-10.7194
寄港	-10.7194
肥料	-10.7194
知的財産権	-10.7194
通貨	-10.7195
競争力の強化	-10.7196
主義	-10.7196
コストの低減	-10.7196
農作物	-10.7196
を設ける	-10.7196
監理	-10.7196
が共同で	-10.7197
建築基準法	-10.7198
技能実習	-10.7199
ヒト	-10.7199
保安林	-10.7199
化学品	-10.7199
り込む	-10.7201
が発生している	-10.7202
-60	-10.7203
公務	-10.7205
投資家	-10.7207
客観的な	-10.7207
水路	-10.721
へき地医療	-10.721
9/10	-10.7211
放出	-10.7211
薬事	-10.7211
燃料供給	-10.7212
指導監督	-10.7212
非常用自家発電	-10.7213
人材の養成	-10.7214
他方	-10.7216
世界気象	-10.7217
ガイドラインの作成	-10.7223
雇用創造	-10.7226
横断的に	-10.7228
を派遣する	-10.7249
低炭素社会	-10.7286
不可欠である	-10.7289
発展途上国	-10.7307
が発生した際	-10.7312
商談会	-10.7314
、2/3、1/2、	-10.7314
重点分野	-10.7324
を使用する	-10.7332
定め	-10.7359
広報啓発	-10.7364
の給付を行う	-10.737
会議を開催する	-10.7385
魅力発信	-10.741
を低減する	-10.7413
解決策	-10.7489
を適切に行う	-10.7493
医療現場	-10.7506
情報を集約	-10.7515
ことができない	-10.7516
が進む中	-10.7564
おける	-10.768
を導入し	-10.7692
がなされ	-10.7712
症例	-10.7725
の共同利用	-10.7725
後押し	-10.7738
産科医	-10.774
が求められ	-10.7743
800	-10.7759
年度補正予算	-10.7769
複	-10.7771
花	-10.7773
内水面	-10.7775
次産業化	-10.7775
端	-10.7776
柄	-10.7777
太平洋島嶼国	-10.7777
春	-10.7777
ライフサイクルコスト	-10.7778
に従い	-10.7778
ハザード	-10.7778
衝	-10.7779
環	-10.7779
に伴って	-10.7779
ESD	-10.7779
美術	-10.7779
にあっては	-10.7779
スクリーニング	-10.7779
道府県	-10.7779
&	-10.7779
誰もが	-10.7779
ILO	-10.7779
強靭化	-10.7779
ユース	-10.7779
国際原子力機関	-10.7779
ワーク	-10.7779
コロナ禍	-10.7779
課題の抽出	-10.7779
模倣品	-10.778
IMO	-10.778
アプリケーション	-10.778
月に策定された	-10.778
鎖	-10.778
内閣総理大臣	-10.778
「	-10.778
アラート	-10.778
定められている	-10.778
を越えて	-10.778
事業再開に要する経費	-10.778
ただし	-10.778
実効的対処能力の向上等を図る	-10.778
防犯	-10.778
擁	-10.778
急激な	-10.778
脆弱性	-10.778
軌道	-10.778
将来目指すべき	-10.778
ばく露	-10.778
有望な	-10.778
への財政的	-10.778
互	-10.778
ユニバーサル	-10.778
ラーニング	-10.778
我が国の平和と国民生活の安	-10.778
馬	-10.778
求職活動	-10.778
舞台芸術	-10.7781
運搬	-10.7781
脈	-10.7781
かどうか	-10.7781
アプリ	-10.7781
火山噴火	-10.7781
オペレーション	-10.7781
伐採	-10.7781
助産師	-10.7781
が所有する	-10.7781
自転車	-10.7781
鍵	-10.7781
風しん	-10.7781
母集団	-10.7781
被災地における障害福祉サービス	-10.7781
ておらず	-10.7781
和解	-10.7781
CCS	-10.7781
教習	-10.7782
平素	-10.7782
ハンセン病療養所	-10.7782
概ね	-10.7782
常設	-10.7782
順次	-10.7782
ERIA	-10.7782
に及ぼす影響	-10.7782
フェーズ	-10.7782
海洋プラスチックごみ	-10.7782
公務員	-10.7782
教科	-10.7782
ドナー	-10.7782
外国語	-10.7782
マネーロンダリング	-10.7783
確定	-10.7783
完全	-10.7783
避難指示	-10.7783
迅速かつ的確な	-10.7783
治山	-10.7783
セット	-10.7784
効率的かつ効果的に	-10.7784
マップ	-10.7784
ワークショップの開催	-10.7785
注意	-10.7785
外国漁船	-10.7785
教養	-10.7786
免許状	-10.7786
への拠出を通じて	-10.7786
創薬	-10.7786
可能な限り	-10.7787
充電	-10.7787
外注	-10.7787
爆発	-10.7788
収支	-10.7789
てもらう	-10.7789
効率的かつ効果的な	-10.779
公示	-10.779
図書	-10.7792
軍事	-10.7792
正常	-10.7792
増強	-10.7793
700	-10.7793
国際的な枠組み	-10.7797
コア	-10.7797
取り入れ	-10.7797
に応え	-10.7797
大規模地震	-10.7798
可能性のある	-10.7799
出向	-10.7799
んでいる	-10.78
新型コロナウイルスの感染拡大	-10.7803
食品の安全性	-10.7813
が不十分	-10.782
ヶ月	-10.7836
区間	-10.7841
が必要となっている	-10.7843
食品衛生	-10.7865
を総合的に行う	-10.7887
外部人材	-10.7892
設け	-10.7932
能力を維持	-10.7962
その結果を踏まえ	-10.8023
仕	-10.8038
を把握するための調査	-10.8106
若	-10.8233
ことが課題となっている	-10.8348
議員	-10.8359
の改革を推進する	-10.8363
の基礎資料を得る	-10.8366
週	-10.8384
であった	-10.8386
統	-10.8393
ほ	-10.8396
カンボジア	-10.8398
行える	-10.8398
厚	-10.8399
繁殖	-10.84
従業員	-10.84
消防庁	-10.8401
耕	-10.8402
抑	-10.8403
停	-10.8403
刑事司法	-10.8403
農地中間管理機構	-10.8403
役割を果たしている	-10.8403
が進み	-10.8403
翌	-10.8403
幹線道路	-10.8403
が期待できる	-10.8403
伝承	-10.8403
北海道胆振東部地震	-10.8404
到	-10.8404
携	-10.8404
動物用医薬品	-10.8404
シート	-10.8404
きめ細やかな	-10.8404
サンゴ礁	-10.8404
に密接	-10.8404
の持続可能性	-10.8404
見本市	-10.8404
リーフレット	-10.8404
多種多様な	-10.8404
噴火	-10.8404
活かす	-10.8404
党	-10.8404
WIPO	-10.8404
スクール	-10.8404
浜通り	-10.8404
軟	-10.8404
崎	-10.8404
に立った	-10.8405
FATF	-10.8405
限度額	-10.8405
全国健康保険協会	-10.8405
名簿	-10.8405
無電柱化	-10.8405
POPs	-10.8405
緊急消防援助隊	-10.8405
コーナー	-10.8405
金属鉱物資源機構	-10.8405
歴	-10.8405
タイプ	-10.8405
リフォーム	-10.8405
東京電力福島第一原子力発電所事故	-10.8405
副反応	-10.8405
直面している	-10.8405
軸	-10.8405
信頼醸成	-10.8405
国際組織犯罪	-10.8405
負傷	-10.8405
以下同じ	-10.8405
快適な	-10.8405
特別支援教育	-10.8405
励	-10.8405
再資源化	-10.8405
極めて重要である	-10.8405
決裁	-10.8405
波及効果	-10.8405
適正かつ効率的な	-10.8405
が期待されている	-10.8406
厳正な	-10.8406
妊産婦	-10.8406
を背景に	-10.8406
年度末まで	-10.8406
ダイオキシン類	-10.8406
尉	-10.8406
認知度向上	-10.8406
MaaS	-10.8406
洗	-10.8406
ポストコロナ	-10.8406
受託	-10.8406
仮設	-10.8406
人身取引	-10.8406
依存症	-10.8406
UPU	-10.8406
幼	-10.8406
にふさわしい	-10.8406
変換	-10.8406
撮影	-10.8406
障害福祉サービス等	-10.8407
イージス	-10.8407
カドミウム	-10.8407
となり得る	-10.8407
共生社会の実現	-10.8407
広島市	-10.8407
一括要求	-10.8407
法務省	-10.8407
虫	-10.8407
条に規定する	-10.8408
核軍縮	-10.8409
短時間	-10.8409
衛星画像	-10.8409
を公募し	-10.8409
防火	-10.8409
木材製品	-10.841
補助金の交付	-10.841
事犯	-10.841
条の規定に基づき	-10.841
常時監視	-10.8411
全国各地で	-10.8411
子育て世帯	-10.8411
不良	-10.8412
権益	-10.8412
実効性のある	-10.8413
の基礎資料とする	-10.8414
を支援します	-10.8416
貸出	-10.8423
毎月	-10.8426
機会の提供	-10.843
レート	-10.843
影響を受けている	-10.8442
に提出する	-10.8451
運営費交付金	-10.8456
事例を収集	-10.8465
を調達する	-10.8478
共同利用施設	-10.8502
を検証し	-10.852
進捗状況	-10.8523
通信網	-10.8526
オープンイノベーション	-10.853
仕組みを構築する	-10.8555
影響を及ぼ	-10.8582
不可欠な	-10.8603
整え	-10.8674
が確保され	-10.8694
の安定的な運用	-10.8728
方向性	-10.8786
ッチ	-10.8807
帯域	-10.8814
貸付け	-10.8846
を軽減する	-10.8854
世界各地	-10.8892
が認められ	-10.891
が進行し	-10.8919
求められている	-10.8933
▁本件事業	-10.8938
に設置した	-10.8947
排	-10.9
運	-10.904
施	-10.9058
まん延	-10.906
擁壁	-10.9065
に繋がる	-10.9066
赤新月社	-10.9067
要介護認定	-10.9068
海上保安庁	-10.9069
WMO	-10.9069
肥	-10.9069
舞	-10.9069
封	-10.9069
浴	-10.907
への反映	-10.907
スペース	-10.907
に当たる	-10.907
ターゲット	-10.907
白	-10.907
モニター	-10.9071
コールセンター	-10.9071
さとうきび	-10.9071
医薬品医療機器総合機構	-10.9071
簡	-10.9071
アジア太平洋経済協力	-10.9071
CTBT	-10.9071
度合い	-10.9071
麻	-10.9071
に精通した	-10.9071
単独で	-10.9071
永住帰国	-10.9071
皮	-10.9071
につなげていく	-10.9071
更生	-10.9071
を生み出す	-10.9071
クリアランス	-10.9071
美	-10.9071
宮	-10.9071
とりわけ	-10.9071
に限る	-10.9071
を抽出する	-10.9071
世紀	-10.9071
効率化推進費	-10.9071
電動化	-10.9071
」	-10.9071
チーズ	-10.9072
都道府県知事	-10.9072
亡	-10.9072
JOGMEC	-10.9072
姿勢	-10.9072
リーダーシップ	-10.9072
国家備蓄石油	-10.9072
接触	-10.9072
廃棄物の処理	-10.9072
UNIDO	-10.9072
喫	-10.9072
皮革関連	-10.9072
腐	-10.9072
高品質な	-10.9072
明確な	-10.9072
にかかわらず	-10.9072
勤務環境改善	-10.9072
降雨	-10.9072
充足	-10.9072
国庫債務負担行為	-10.9072
文部科学大臣	-10.9072
救命救急センター	-10.9072
火力発電	-10.9072
風評被害	-10.9072
地域包括ケアシステムの構築	-10.9072
新幹線	-10.9072
熊本地震	-10.9072
付属品	-10.9072
メコン	-10.9072
広範な	-10.9072
緯	-10.9072
児童福祉施設等	-10.9072
中東和平	-10.9072
防衛計画の大綱等に基づき	-10.9072
地球規模課題	-10.9073
耐震補強	-10.9073
巻	-10.9073
上記目的を達成するため	-10.9073
を可能にする	-10.9073
縦断調査	-10.9073
労働力不足	-10.9073
借り入れ	-10.9073
径	-10.9073
遅延	-10.9073
教授	-10.9073
科学的根拠	-10.9073
進んでいない	-10.9073
容器包装	-10.9073
いずれ	-10.9073
在留邦人	-10.9073
決済	-10.9073
ワクチン接種	-10.9073
ことが必要不可欠である	-10.9073
犬	-10.9073
の協力を得て	-10.9074
論文	-10.9074
まん延防止	-10.9074
パソコン	-10.9074
キャリアコンサルティング	-10.9074
の参加を得て	-10.9074
を有効に活用する	-10.9074
福島第一原子力発電所の廃炉	-10.9074
要件を満たす	-10.9074
潮流	-10.9075
以来	-10.9075
働く	-10.9075
共助	-10.9075
在留資格	-10.9075
借料	-10.9075
独創的	-10.9076
名称	-10.9076
が生じた場合	-10.9076
育児休業	-10.9076
被災農業者等	-10.9076
授業料	-10.9078
移管	-10.9078
引上げ	-10.9082
齢	-10.9083
に的確に対応する	-10.9084
行ってきた	-10.9085
に居住する	-10.9088
際に必要となる	-10.9089
こと等を目的とする	-10.9089
災害により被災した	-10.9089
を加速させる	-10.9095
を総合的に支援する	-10.9098
で活躍する	-10.9098
を総合的に推進する	-10.9101
に利用される	-10.9107
に要する経費に対して補助を行	-10.9112
に対応できるよう	-10.9121
に招へいし	-10.9122
を付与する	-10.9146
を製造する	-10.9169
を加速化する	-10.9185
既	-10.9201
について検討し	-10.9236
を統合し	-10.9392
習慣	-10.9393
新型コロナウイルスの影響	-10.9413
の諸活動	-10.9505
るおそれのある	-10.9518
が示され	-10.9606
に参画する	-10.9615
を委託し	-10.9662
を育成し	-10.9717
を拡充する	-10.9744
働	-10.976
未満の	-10.9768
ZEB	-10.9769
地域漁業管理機関	-10.9779
併せ	-10.9779
HFC	-10.978
GEO	-10.9782
診	-10.9782
ばれいしょ	-10.9782
水質汚濁	-10.9782
世	-10.9783
都府県	-10.9783
かんしょ	-10.9783
勘	-10.9783
DPC	-10.9783
畑	-10.9784
炭素	-10.9784
焼却	-10.9784
凍	-10.9784
捜	-10.9784
窒	-10.9784
サブサハラ	-10.9784
いじめ	-10.9784
討	-10.9784
往	-10.9784
催	-10.9784
聞	-10.9784
が進められている	-10.9784
コメ加工品	-10.9785
非接触	-10.9785
始	-10.9785
の少ない	-10.9785
那	-10.9785
を結ぶ	-10.9785
条約上の義務	-10.9785
インターンシップ	-10.9785
上乗せ	-10.9785
不発弾	-10.9785
軽量化	-10.9785
アスベスト	-10.9785
岩手県	-10.9785
サーベイランス	-10.9785
タスク	-10.9785
誤	-10.9785
スタッフ	-10.9785
公認会計士	-10.9785
リコール	-10.9785
を担保する	-10.9785
原子力の平和的利用	-10.9785
茶	-10.9785
繰り返	-10.9785
総合戦略室	-10.9786
が喫緊の課題となっている	-10.9786
マクロ経済	-10.9786
レポート	-10.9786
国土形成計画	-10.9786
ソマリア	-10.9786
豪州	-10.9786
ゆ	-10.9786
NOWPAP	-10.9786
キャパシティ	-10.9786
タクシー	-10.9786
を前提とした	-10.9786
実施及び同業務の推進に資すること	-10.9786
要領	-10.9786
肝	-10.9786
飛散	-10.9786
を営む	-10.9786
埋設	-10.9786
長崎市	-10.9786
糖尿病	-10.9786
パンデミック	-10.9786
長距離	-10.9786
から成る	-10.9786
宮城県	-10.9786
競争的資金	-10.9786
縦	-10.9786
都道府県及び市町村	-10.9787
薬剤耐性菌	-10.9787
黄	-10.9787
供託	-10.9787
摩	-10.9787
の精緻化	-10.9787
リカレント教育	-10.9787
生まれ	-10.9787
音声	-10.9787
特色	-10.9787
ガイドブック	-10.9787
技術者の研修	-10.9787
来訪	-10.9787
各種事態への即応	-10.9787
夫	-10.9787
避難指示区域	-10.9787
内閣官房情報通信技術	-10.9787
が中心となって	-10.9787
中等教育学校	-10.9787
衡	-10.9787
少年院	-10.9787
赤	-10.9787
パートタイム	-10.9788
増殖	-10.9788
に該当する	-10.9788
日本医療研究開発機構	-10.9788
ターミナル	-10.9788
鉄軌道	-10.9788
位置づけられた	-10.9788
停滞	-10.9788
追跡	-10.9788
錬	-10.9788
海上保安庁法第	-10.9788
介護福祉士候補者	-10.9788
すれば	-10.9788
パワー半導体	-10.9788
難しい	-10.9788
罰	-10.9788
異業種	-10.9788
広範囲	-10.9788
で構成する	-10.9789
双方向	-10.9789
UNFCCC	-10.9789
の多い	-10.979
閣僚級	-10.979
に関連した	-10.9793
満たし	-10.981
通信回線	-10.9826
が作成する	-10.9826
中高年	-10.9828
施設及び設備	-10.9868
直面する	-10.9868
が課題である	-10.9871
課題を解決する	-10.9902
大規模災害発生時に	-10.9902
自身の	-10.9911
が可能となるよう	-10.9956
として活用する	-11.0035
を訪問し	-11.0066
技術的知見を取得	-11.0151
事例の横展開	-11.0285
目指す	-11.0397
が困難であ	-11.0458
を果たすため	-11.0478
承継	-11.0512
を行って	-11.0526
わせる	-11.0547
情	-11.0547
ひとり親家庭	-11.0547
中山間地域	-11.0549
謝	-11.055
ABAC	-11.055
IUU	-11.0551
迎	-11.0551
蓄	-11.0551
濃	-11.0552
南海トラフ	-11.0552
帰宅困難者	-11.0552
CNF	-11.0552
九州	-11.0552
劇	-11.0552
非対面	-11.0552
声	-11.0553
WEB	-11.0553
万トン	-11.0553
岐	-11.0553
HACCP	-11.0553
ラベル	-11.0553
キャンパス	-11.0554
問い合わせ	-11.0554
仏	-11.0554
槽	-11.0554
LAN	-11.0554
そうした	-11.0554
公共サービス改革法	-11.0554
国民健康保険団体連合会	-11.0554
日本再興戦略	-11.0554
GOSAT	-11.0554
建設キャリアアップシステム	-11.0554
国有林野	-11.0554
身につけ	-11.0554
知日派	-11.0554
JICA	-11.0554
LNG	-11.0554
同センターの業務	-11.0554
草の根	-11.0554
森	-11.0554
キャンペーン	-11.0554
なければ	-11.0554
任意拠出金	-11.0554
日米安全保障体制	-11.0554
感染症指定医療機関	-11.0554
和平	-11.0555
シフト	-11.0555
ビルディング	-11.0555
対日直接投資	-11.0555
板	-11.0555
分かりやすい	-11.0555
産油国	-11.0555
管轄する	-11.0555
規制の特例措置	-11.0555
あらかじめ	-11.0555
らせる	-11.0555
抜	-11.0555
に着目した	-11.0555
暑	-11.0555
襲	-11.0555
求職者雇用支援機構	-11.0555
裏	-11.0555
補装具	-11.0555
フォーマット	-11.0555
曝	-11.0555
サンプル	-11.0555
空中写真	-11.0555
ARF	-11.0555
と比べ	-11.0555
受動喫煙防止対策	-11.0555
02-00	-11.0556
水産エコラベル	-11.0556
等を勘案し	-11.0556
防衛大学校	-11.0556
セッション	-11.0556
掛かり増し	-11.0556
帳	-11.0556
核物質防護	-11.0556
航路標識	-11.0556
繁	-11.0556
南スーダン	-11.0556
PDCA	-11.0556
配慮しつつ	-11.0556
カメラ	-11.0556
月に閣議決定された	-11.0556
直ちに	-11.0556
スマートフォン	-11.0556
と一体となって	-11.0556
をまとめた	-11.0556
統括	-11.0556
を予定している	-11.0556
”	-11.0556
写	-11.0556
を中心として	-11.0556
の一部を改正する法律	-11.0556
共済掛金	-11.0556
賃貸借	-11.0556
にくい	-11.0556
上記の目的を達成するため	-11.0557
今回の	-11.0557
岡	-11.0557
世界最高水準の	-11.0557
一般管理費	-11.0557
を視野に入れ	-11.0557
塩	-11.0557
徳	-11.0557
共催	-11.0557
経済産業局	-11.0557
駐留軍	-11.0557
を結集し	-11.0558
配合飼料	-11.0558
研究及び技術の開発	-11.0558
の安定的な供給	-11.0558
京都議定書	-11.0558
鶏卵	-11.0559
まん延を防止する	-11.0559
外国人看護師候補者	-11.056
農業共済組合連合会	-11.056
の一部を国が補助	-11.056
を構成する	-11.0601
適時適切に	-11.0616
の協力の下	-11.071
資料を作成	-11.0739
事業の目的を達成するため	-11.0751
が開始され	-11.0752
ゾ	-11.094
の財務基盤	-11.1022
法に規定	-11.1084
更	-11.1158
を基本と	-11.1254
つながる	-11.129
を占め	-11.1331
シンポジウムを開催	-11.135
非常用	-11.1355
青	-11.1365
が得られ	-11.1368
安保理	-11.1375
賄	-11.1376
市及び福祉事務所設置町村	-11.1378
介護給付費明細書	-11.1379
訪	-11.1379
象	-11.1379
地方議会	-11.1382
札	-11.1383
順	-11.1384
の掘り起こし	-11.1384
肉用牛	-11.1384
譲	-11.1384
トラヒック	-11.1385
冊	-11.1385
名古屋	-11.1386
操縦士	-11.1386
筆	-11.1386
堤	-11.1386
覆	-11.1386
ファイル	-11.1386
年度途中	-11.1386
にあたる	-11.1386
訳	-11.1386
コンパクト	-11.1386
新エネ	-11.1386
耐久性	-11.1386
受刑者	-11.1386
特措法	-11.1386
了	-11.1386
不法投棄等	-11.1386
x	-11.1386
担い手への農地集積	-11.1386
CWC	-11.1387
トルコ	-11.1387
潜	-11.1387
重大事故	-11.1387
効果的かつ効率的な	-11.1387
肺	-11.1387
老人クラブ	-11.1387
次補正予算	-11.1387
被援助国	-11.1387
歯科衛生士	-11.1387
ジェンダー	-11.1387
督	-11.1387
コントロール	-11.1387
ことを最終目的として	-11.1387
新聞広告	-11.1387
注意喚起	-11.1387
任務を遂行	-11.1387
ハラスメント	-11.1387
学校給食	-11.1387
親日派	-11.1387
を未然に防ぐため	-11.1387
に特化した	-11.1387
初めて	-11.1387
国際的に通用する	-11.1387
女性活躍推進	-11.1387
既往	-11.1388
WADA	-11.1388
の全部又は一部	-11.1388
テロ資金供与対策	-11.1388
契約を締結し	-11.1388
投資の自由化	-11.1388
SDG	-11.1388
熊	-11.1388
臨床研究中核病院	-11.1388
迎賓館	-11.1388
が主体となって	-11.1388
周産期母子医療センター	-11.1388
バリア	-11.1388
インベントリ	-11.1388
ニング	-11.1388
トンネル	-11.1388
関わり	-11.1388
国際海事機関	-11.1388
消防組織法第	-11.1388
防音工事	-11.1388
灯	-11.1388
敵	-11.1388
坑	-11.1388
敗	-11.1388
尿	-11.1389
パイロット	-11.1389
を育む	-11.1389
一元化	-11.1389
アーカイブ	-11.1389
平準化	-11.1389
したがって	-11.1389
塀	-11.1389
輸出先国が求める	-11.1389
IOM	-11.1389
機運醸成	-11.1389
ソーナー	-11.1389
日本産食材	-11.1389
遠	-11.1389
の縮小	-11.1389
ヵ	-11.1389
年訪日外国人旅行者数	-11.1389
恵	-11.1389
新型コロナウィルス	-11.1389
臓器移植	-11.1389
に取組む	-11.1389
後発医薬品	-11.1389
世銀	-11.1389
繰	-11.1389
交通安全施設等整備事業	-11.1389
ASEM	-11.1389
小児慢性特定疾病	-11.1389
養護老人ホーム	-11.1389
に合わせた	-11.139
の輸出力強化	-11.139
種々の	-11.139
広大な	-11.139
尾	-11.139
法定受託事務	-11.139
モード	-11.139
母子家庭の母	-11.139
ほぼ	-11.139
学び直し	-11.139
重層的な	-11.139
ITER	-11.139
TICAD	-11.139
分野の研究開発及びその環境の整備	-11.139
氷	-11.139
核燃料サイクル	-11.139
と共同で	-11.139
被用者保険	-11.139
工業製品等	-11.139
クルーズ	-11.1391
一般用医薬品	-11.1391
多面的	-11.1391
の違い	-11.1392
の中核となる	-11.1393
児童福祉法	-11.1393
数理科学	-11.1393
万人等の目標	-11.1399
生活保護法	-11.14
活動に参画	-11.1403
の要請に基づき	-11.1404
法令の海上に	-11.1421
高まって	-11.1422
に積極的に取り組	-11.1509
が存在し	-11.1747
アンケート	-11.185
が進展し	-11.1932
が必要不可欠	-11.2049
生じている	-11.2188
と密接に	-11.2249
邦	-11.228
生産性要件を満たした場合	-11.2288
展	-11.2288
授	-11.2292
緩	-11.2292
ゾーニング	-11.2293
に要した費用	-11.2293
苗	-11.2293
轄	-11.2293
抵	-11.2294
児童養護施設	-11.2294
引継ぎ	-11.2294
新規就業者	-11.2294
ナッジ	-11.2294
オーストラリア	-11.2294
サプライヤー	-11.2295
非営利	-11.2295
当省において集計	-11.2295
無形文化財	-11.2295
ブロックチェーン技術	-11.2295
多大な影響	-11.2295
題	-11.2295
BMD	-11.2295
電子計算機	-11.2295
無形文化遺産	-11.2295
ミャンマー	-11.2296
の安定と発展	-11.2296
原子爆弾	-11.2296
返	-11.2296
嘱	-11.2296
有益な	-11.2296
豪	-11.2296
消費税転嫁対策特別措置法	-11.2296
OPCW	-11.2296
伝染性疾病	-11.2296
調査票を配布	-11.2296
RED	-11.2296
を経由して	-11.2296
国連環境計画	-11.2296
が疑われる	-11.2296
に万全を期す	-11.2296
ギャンブル等依存症	-11.2296
国内避難民	-11.2296
低廉な	-11.2296
水源の涵養	-11.2296
を受講する	-11.2297
内航海運	-11.2297
苑	-11.2297
機会を捉え	-11.2297
豊富な	-11.2297
善	-11.2297
にあった	-11.2297
周産期	-11.2297
非鉄金属	-11.2297
特定外来生物	-11.2297
が増大している	-11.2297
予算の範囲内で	-11.2297
景品表示法	-11.2297
我が国が重視する	-11.2297
環境を整える	-11.2297
開かれた	-11.2297
わかりやすく	-11.2297
地球規模課題の解決	-11.2297
新規制基準	-11.2297
を念頭に	-11.2297
芸術文化活動	-11.2297
放課後	-11.2297
耐用年数	-11.2297
と一体となった	-11.2297
ガイダンス	-11.2297
国土地理院	-11.2297
宝	-11.2297
段	-11.2297
地方厚生局	-11.2297
兆	-11.2297
剰	-11.2297
恐れのある	-11.2297
か年計画	-11.2297
旋	-11.2297
浮	-11.2297
遺言書	-11.2297
ガソリン	-11.2298
一元管理	-11.2298
総合特区	-11.2298
教育の機会均等	-11.2298
ための施設の設置及び運営	-11.2298
AMR	-11.2298
幼児児童生徒	-11.2298
救急救命士	-11.2298
坑廃水処理	-11.2298
借り上げ	-11.2298
社会資本総合整備計画の目標	-11.2298
プラクティス	-11.2298
電源立地対策	-11.2298
亜	-11.2298
階	-11.2298
から提出される	-11.2298
交付金を交付し	-11.2298
量子科学技術	-11.2298
委嘱し	-11.2298
個人情報保護法	-11.2298
意欲と能力のある	-11.2298
中央合同庁舎第	-11.2298
デジタルトランスフォーメーション	-11.2298
海上における犯人の捜査及び逮捕	-11.2298
が難しく	-11.2298
銅	-11.2298
条件不利地域	-11.2298
赴	-11.2298
日本年金機構	-11.2298
アクセシビリテ	-11.2298
生活衛生関係営業	-11.2298
外国人看護師等	-11.2299
等へ反映する	-11.2299
認定こども園	-11.2299
チェンジ	-11.2299
曹	-11.2299
コーディネート	-11.2299
司書教諭	-11.2299
艇	-11.2299
判明した	-11.2299
障害福祉サービス事業者	-11.2299
歯科口腔保健	-11.2299
地産地消	-11.2299
ドクターヘリ	-11.2299
が予定されている	-11.2299
農畜産業振興機構	-11.2299
アート	-11.2299
正規雇用	-11.2299
にもかかわらず	-11.23
羅	-11.23
浮体式洋上風力発電	-11.23
全国規模で	-11.23
甘味資源作物	-11.23
我が国周辺水域	-11.23
の減免	-11.2301
年金生活者支援給付金	-11.2301
電子マニフェスト	-11.2301
カリコム	-11.2302
急激に	-11.2302
時間の短縮	-11.2303
を整備しているところであ	-11.2304
家内労働	-11.2307
を増加させる	-11.2315
広く周知する	-11.2338
務用品	-11.2341
責務を果たす	-11.2412
の実効性を確保する	-11.2517
公設試	-11.2673
に使用され	-11.2771
が可能であ	-11.318
金として交付する	-11.3273
ユーザ	-11.3287
湿	-11.3289
省人化	-11.3289
指定研修機関	-11.329
頻	-11.329
秋	-11.3291
遂	-11.3291
国家戦略特別区域	-11.3292
土石流	-11.3292
日本学士院	-11.3294
販	-11.3294
義務的拠出金	-11.3294
コンピューティング	-11.3294
帰還困難区域	-11.3295
衆	-11.3295
幌	-11.3295
カナダ	-11.3295
横	-11.3296
ICAO	-11.3296
責	-11.3296
リチウムイオン電池	-11.3296
原子炉等規制法	-11.3296
に支障を来す	-11.3296
今般の新型コロナウイルス感染症	-11.3296
遅	-11.3296
たばこ	-11.3296
に基づく民間競争入札	-11.3296
役割を担っている	-11.3296
蚕	-11.3296
ドイツ	-11.3297
公的個人認証	-11.3297
月に施行された	-11.3297
政府の重要施策	-11.3297
泥	-11.3297
津	-11.3297
盗	-11.3297
インプット	-11.3297
班	-11.3297
細部設計	-11.3297
押	-11.3297
オンライン資格確認	-11.3297
住宅確保要配慮者	-11.3297
Gov	-11.3297
一般社団法人	-11.3297
緒	-11.3297
速やかな復旧を図り	-11.3297
CIO	-11.3297
NEDO	-11.3297
ラウンド	-11.3297
生涯活躍のまち	-11.3297
等が作成した社会資本総合整備計画	-11.3297
確かな	-11.3297
水平展開	-11.3297
被ばく線量	-11.3297
項に定める任務である海上の安全	-11.3297
典	-11.3297
透明化	-11.3297
アウトリーチ活動	-11.3297
スタンダード	-11.3297
新たな産業の創出	-11.3297
肝硬変	-11.3297
に影響を及ぼす	-11.3298
GFP	-11.3298
Startup	-11.3298
を最大限活用する	-11.3298
自動車運送事業者	-11.3298
山地災害	-11.3298
IRENA	-11.3298
に要する初期契約	-11.3298
観光立国	-11.3298
伊	-11.3298
に大きな影響を及ぼす	-11.3298
中深度処分	-11.3298
中間評価	-11.3298
医療観察法	-11.3298
をはかる	-11.3298
を迅速かつ的確に	-11.3298
秘	-11.3298
求職者その他の労働者の職業	-11.3298
保護観察所	-11.3298
全国各地の	-11.3298
経済及び社会の発展に寄与	-11.3298
中間貯蔵施設	-11.3298
塔	-11.3298
就職支援ナビゲーター	-11.3298
提出された調査票は	-11.3298
の初動対応	-11.3298
厚生労働大臣が適当と認める者	-11.3298
外務大臣	-11.3298
マテリアル	-11.3298
エネルギー起源	-11.3298
ふるさと	-11.3298
CSF	-11.3298
マスタープラン	-11.3298
一般競争入札	-11.3298
HGV	-11.3298
ドライバー	-11.3298
上の理由により	-11.3298
枯	-11.3298
陽	-11.3298
スケジュール	-11.3298
世界に先駆けて	-11.3298
に則り	-11.3298
ジェトロ	-11.3298
医療的ケア児	-11.3298
公共土木施設	-11.3299
刑務所出所者等	-11.3299
国連分担率に基づ	-11.3299
コンビナート	-11.3299
特定機能病院	-11.3299
NATO	-11.3299
IMF	-11.3299
福祉の向上を図ることを目的とする	-11.3299
環境上適正な	-11.3299
賀	-11.3299
ニーズに応える	-11.3299
四半期	-11.3299
公共牧場	-11.3299
新生児	-11.3299
低所得者	-11.3299
積層造形	-11.3299
空中線	-11.3299
防災行政無線	-11.3299
アウトカム	-11.3299
犯罪の予防及び鎮圧	-11.3299
良質かつ	-11.33
障害者支援施設等	-11.33
に結びつける	-11.33
をおこなう	-11.33
膜	-11.33
民族共生象徴空間	-11.33
重要な課題となっている	-11.33
僚	-11.33
ブロードバンド	-11.33
放射性同位元素	-11.33
イタイイタイ病	-11.33
薄	-11.33
都道府県労政主管課	-11.3301
しておく	-11.3301
存続厚生年金基金	-11.3301
かかりつけ医機能	-11.3302
製品等の国際展開	-11.3302
提起され	-11.3303
なくなった	-11.3304
行政運営の効率	-11.3317
歳未満	-11.3325
の競争力を強化	-11.3347
の健全性	-11.3556
の実態を明らかに	-11.3699
することが可能とな	-11.3823
オゾン	-11.3865
もたらす	-11.4016
不可欠であ	-11.4109
韓	-11.4359
センタ	-11.4399
銘	-11.4402
母子家庭等	-11.4403
綿	-11.4404
ファンディング	-11.4404
中途採用	-11.4404
AALCO	-11.4405
礁	-11.4405
IUCN	-11.4405
息	-11.4405
に位置付けられた	-11.4405
グリーンボンド	-11.4405
障害者総合支援法	-11.4406
兵	-11.4406
官庁会計システム	-11.4406
漏えい	-11.4406
旧ソ連	-11.4406
アイデア	-11.4406
下水処理場	-11.4406
かねない	-11.4406
化学兵器禁止条約	-11.4406
義務教育段階	-11.4406
キング	-11.4406
衰	-11.4407
不測の事態	-11.4407
優先順位	-11.4407
が進まない	-11.4407
補聴器	-11.4407
に焦点を当て	-11.4407
Rad	-11.4407
プライバシー	-11.4407
化石燃料	-11.4407
恐れがある	-11.4407
石油精製	-11.4407
ビリティ	-11.4407
信用保証協会	-11.4407
災害応急対策	-11.4407
高収益作物	-11.4407
製油所	-11.4407
に役立つ	-11.4407
を前提に	-11.4407
任期制自衛官	-11.4407
適正かつ効果的な活用	-11.4407
さまざまな	-11.4408
中期目標	-11.4408
消費税率引上げ	-11.4408
電子基準点	-11.4408
最低限の	-11.4408
靭	-11.4408
戸建住宅	-11.4408
飲食店	-11.4408
施設入所者等の福祉を確保する	-11.4408
に直結する	-11.4408
適切かつ効果的	-11.4408
礼	-11.4408
ワイド	-11.4408
俣	-11.4408
勝	-11.4408
我が国海事産業	-11.4408
#	-11.4408
サンゴ	-11.4408
シリア	-11.4408
食品ロスの削減	-11.4408
ホットライン	-11.4408
障害者職業能力開発校	-11.4408
泉	-11.4408
FCV	-11.4408
tic	-11.4408
ならではの	-11.4408
シンガポール	-11.4408
尖閣諸島	-11.4408
被疑者	-11.4408
障害のある学生	-11.4408
非常勤	-11.4408
主流化	-11.4409
アレイ	-11.4409
コンステレーション	-11.4409
パソコン等の事	-11.4409
パトロール	-11.4409
令和元年房総半島台風	-11.4409
就職面接会	-11.4409
バーチャル	-11.4409
腎	-11.4409
の中核的機関として	-11.4409
原子爆弾被爆者に対する援護	-11.4409
再度災害防止	-11.4409
の健康の保持増進	-11.4409
インセンティブ	-11.4409
対策本部決定	-11.4409
小笠原諸島	-11.4409
避難解除区域	-11.4409
Intern	-11.4409
ヒヤリ	-11.4409
地域経済の核とな	-11.4409
anagement	-11.4409
j	-11.4409
メダル	-11.4409
交通管制システム	-11.4409
棚	-11.4409
独立行政法人福祉医療機構	-11.4409
湾	-11.4409
スマートシティ	-11.4409
年度から令和元年度にかけて	-11.4409
産業技術総合開発機構	-11.4409
の整備又は改修のための経費	-11.4409
ならびに	-11.4409
社会保険診療報酬支払基金	-11.4409
が尊重される社会	-11.4409
バーゼル条約	-11.4409
通所介護	-11.4409
生分解性プラスチック	-11.4409
実効的対処能力の維持を図る	-11.4409
ラグビー	-11.4409
先行技術文献調査	-11.4409
即戦力	-11.4409
的見地から	-11.4409
電磁波	-11.4409
負担を軽減し	-11.4409
運輸施設整備支援機構	-11.4409
マネージメント	-11.4409
海洋権益の保全	-11.4409
*	-11.441
広島市及び長崎市	-11.441
JADGE	-11.441
NBC	-11.441
いて算出された拠出率に応じた額	-11.441
に左右され	-11.441
及び健康の保持に	-11.441
塞	-11.441
社会情勢の変化	-11.441
脳卒中	-11.441
タイミング	-11.441
高精細	-11.441
福島第一原発事故	-11.441
バックアップ	-11.441
危険物流出事故等に係る消防	-11.441
移行期医療	-11.441
ブース	-11.441
不審船	-11.441
プロトタイプ	-11.441
発言力	-11.441
技術基準等の改正や	-11.441
アセアン	-11.441
充当される	-11.441
地方衛生研究所	-11.441
左	-11.441
を追求する	-11.441
ぼ	-11.441
同報系	-11.4411
実現可能性調査	-11.4411
附則第	-11.4411
民主主義	-11.4411
よろず支援拠点	-11.4411
過疎化	-11.4411
葬祭料	-11.4411
被招へい者	-11.4411
期科学技術基本計画	-11.4411
穏	-11.4411
固定価格買取制度	-11.4411
酸性雨	-11.4412
安全運転サポート車	-11.4412
小児慢性特定疾病児童等	-11.4412
コンセッション方式	-11.4412
途上エコノミー	-11.4412
ムーンショット型	-11.4413
エレクトロニクス	-11.4413
レーザー	-11.4414
温室効果ガス削減に貢献する	-11.4415
への対応力を向上させる	-11.4416
経済的理由によ	-11.4419
課題を解決し	-11.4493
事業に必要な経費の一部を補助	-11.4643
及び治安の確保を図るために行う	-11.5264
に要する費用に充てるため	-11.5602
自家発電設備	-11.561
拠	-11.5648
褒	-11.565
廷	-11.565
ウナギ	-11.5652
多言語音声翻訳	-11.5653
愛知県	-11.5653
を交えた	-11.5654
ノーベル	-11.5654
女性起業家	-11.5654
AMED	-11.5655
まぐろ	-11.5655
播	-11.5655
福島県浜通り地域	-11.5655
時間外労働の上限規制	-11.5656
徴	-11.5656
競	-11.5656
宗	-11.5656
狭	-11.5657
券	-11.5657
臭	-11.5658
乾	-11.5658
岩	-11.5658
狙	-11.5658
永	-11.5659
夏	-11.5659
⇒	-11.5659
斉	-11.5659
累	-11.5659
八	-11.5659
塵	-11.5659
Z	-11.566
迷	-11.566
我	-11.566
踏	-11.566
ゅ	-11.566
眼	-11.566
鉛	-11.5661
昆	-11.5662
溶	-11.5662
寺	-11.5663
即	-11.701
旅	-11.7067
完	-11.7067
鹿	-11.7078
構	-11.7078
≪	-11.7079
炎	-11.7082
説	-11.7082
傍	-11.7083
皆	-11.7083
氏	-11.7084
夜	-11.7085
溝	-11.7085
卵	-11.7085
香	-11.7086
履	-11.7086
浅	-11.7086
渋	-11.7086
贈	-11.7086
➁	-11.7086
袋	-11.7086
希	-11.7086
墓	-11.7086
逐	-11.7087
六	-11.7087
鏡	-11.7087
廉	-11.7087
陰	-11.7087
脂	-11.7088
蒸	-11.7088
丁	-11.7088
寧	-11.7088
逸	-11.7088
純	-11.7088
;	-11.7089
弟	-11.709
験	-11.7689
盤	-11.8744
ヨ	-11.8745
双	-11.8746
併	-11.8747
願	-11.8747
墜	-11.8748
企	-11.8749
羽	-11.8751
泌	-11.8751
江	-11.8752
筑	-11.8752
賜	-11.8752
憩	-11.8752
偏	-11.8752
色	-11.8752
餌	-11.8752
囲	-11.8752
鳴	-11.8753
舶	-11.8754
谷	-11.8754
季	-11.8754
据	-11.8754
(	-11.8755
)	-11.8755
菜	-11.8755
欄	-11.8755
誉	-11.8755
硫	-11.8755
寸	-11.8755
脚	-11.8755
七	-11.8756
葬	-11.8756
貝	-11.8757
違	-12.0735
冠	-12.0745
腸	-12.0746
°	-12.0746
衣	-12.0747
席	-12.0747
栄	-12.0748
杭	-12.0749
悉	-12.0749
随	-12.075
啓	-12.075
≫	-12.0751
稲	-12.0751
縁	-12.0752
殖	-12.0752
弁	-12.0752
掲	-12.0752
捨	-12.0752
稿	-12.0753
頼	-12.0753
=	-12.0753
湯	-12.0753
須	-12.0753
宿	-12.0753
!	-12.0753
桑	-12.0753
壕	-12.0753
維	-12.0753
吊	-12.0754
何	-12.0754
於	-12.0754
懸	-12.0754
丘	-12.0755
樋	-12.0755
諾	-12.0755
堺	-12.0755
五	-12.0756
盲	-12.0756
絵	-12.0756
凝	-12.0756
拓	-12.0756
瞬	-12.0757
絡	-12.319
沈	-12.3235
劣	-12.3236
奪	-12.3246
乏	-12.3247
獲	-12.3249
将	-12.3249
恐	-12.325
浪	-12.3251
郊	-12.3252
億	-12.3252
誰	-12.3253
ぜ	-12.3253
松	-12.3253
窓	-12.3253
磨	-12.3254
寒	-12.3254
鶏	-12.3254
砕	-12.3255
殻	-12.3255
堅	-12.6575
ぞ	-12.6582
禍	-12.6583
針	-12.6584
承	-12.6584
倣	-12.6585
笠	-12.6586
硬	-12.6587
ぬ	-12.6587
糧	-12.6587
郡	-12.6588
噴	-12.6588
紫	-13.1573
箇	-13.1577
汎	-13.1577
慢	-13.1578
較	-13.1578
鎮	-13.1582
徒	-13.1583
派	-13.1584
析	-13.1584
影	-13.1585
荒	-13.1585
稼	-13.1587
ヌ	-13.1587
奈	-13.159
九	-13.159
尖	-13.1591
貧	-13.1593
肪	-14.1188
疼	-14.1189
琶	-14.119
琵	-14.1191
王	-14.1192
曾	-14.1193
旦	-14.1194
拝	-14.1195
懲	-14.1196
忠	-14.1197
姻	-14.1198
埠	-14.1199
勉	-14.12
冬	-14.1201
冒	-14.1202
偵	-14.1203
伍	-14.1204
陛	-14.1205
覇	-14.1206
腰	-14.1207
綬	-14.1208
租	-14.1209
琉	-14.121
泡	-14.1211
搾	-14.1212
垣	-14.1213
刈	-14.1214
傘	-14.1215
倫	-14.1216
銭	-14.1217
輻	-14.1218
輳	-14.1219
輩	-14.122
誠	-14.1221
裡	-14.1222
藤	-14.1223
燥	-14.1224
漠	-14.1225
亘	-14.1226
黒	-14.1227
雌	-14.1228
隠	-14.1229
酷	-14.123
輝	-14.1231
踊	-14.1232
賑	-14.1233
蔽	-14.1234
絞	-14.1235
渓	-14.1236
毀	-14.1237
斡	-14.1238
折	-14.1239
剖	-14.124
	-14.1241
逼	-14.1242
蹄	-14.1243
裕	-14.1244
茨	-14.1245
紋	-14.1246
箋	-14.1247
猫	-14.1248
洩	-14.1249
梁	-14.125
廠	-14.1251
卓	-14.1252
勾	-14.1253
乙	-14.1254
之	-14.1255
騰	-14.1256
餓	-14.1257
飢	-14.1258
遭	-14.1259
藉	-14.126
胎	-14.1261
疵	-14.1262
瑕	-14.1263
淡	-14.1264
梅	-14.1265
峡	-14.1266
娩	-14.1267
享	-14.1268
頂	-14.1269
零	-14.127
蔓	-14.1271
翼	-14.1272
粒	-14.1273
眠	-14.1274
皿	-14.1275
犠	-14.1276
牲	-14.1277
枢	-14.1278
批	-14.1279
唱	-14.128
仙	-14.1281
豆	-14.1282
詐	-14.1283
篤	-14.1284
焦	-14.1285
潤	-14.1286
沼	-14.1287
欺	-14.1288
拒	-14.1289
叙	-14.129
匠	-14.1291
俗	-14.1292
且	-14.1293
逮	-14.1294
逃	-14.1295
裨	-14.1296
瞰	-14.1297
灰	-14.1298
湛	-14.1299
控	-14.13
哨	-14.1301
兼	-14.1302
俯	-14.1303
醒	-14.1304
邸	-14.1305
藻	-14.1306
薦	-14.1307
拘	-14.1308
拉	-14.1309
幣	-14.131
嵩	-14.1311
罹	-14.1312
祈	-14.1313
碑	-14.1314
暫	-14.1315
准	-14.1316
頃	-14.1317
百	-14.1318
潟	-14.1319
孤	-14.132
塊	-14.1321
遍	-14.1322
惧	-14.1323
恒	-14.1324
弔	-14.1325
巨	-14.1326
勲	-14.1327
丸	-14.1328
漂	-14.1329
拭	-14.133
塡	-14.1331
陥	-14.1332
述	-14.1333
諭	-14.1334
裾	-14.1335
粛	-14.1336
悩	-14.1337
巧	-14.1338
妙	-14.1339
顔	-14.134
賓	-14.1341
屯	-14.1342
似	-14.1343
涵	-14.1344
宜	-14.1345
堆	-14.1346
堂	-14.1347
倉	-14.1348
釈	-14.1349
聘	-14.135
挑	-14.1351
娠	-14.1352
匿	-14.1353
鯨	-14.1354
酪	-14.1355
昇	-14.1356
掌	-14.1357
奄	-14.1358
賊	-14.1359
胆	-14.136
昨	-14.1361
撲	-14.1362
悼	-14.1363
喪	-14.1364
預	-14.1365
膨	-14.1366
肢	-14.1367
穀	-14.1368
暇	-14.1369
掃	-14.137
妨	-14.1371
賦	-14.1372
緻	-14.1373
摂	-14.1374
氾	-14.1375
憲	-14.1376
臓	-14.1377
痛	-14.1378
填	-14.1379
趣	-14.138
快	-14.1381
伸	-14.1382
霊	-14.1383
志	-14.1384
貴	-14.1385
矯	-14.1386
渇	-14.1387
摘	-14.1388
窮	-14.1389
牽	-14.139
距	-14.1391
嫁	-14.1392
訟	-14.1393
舗	-14.1394
濁	-14.1395
捉	-14.1396
打	-14.1397
壌	-14.1398
腔	-14.1399
胞	-14.14
擬	-14.1401
扶	-14.1402
宣	-14.1403
秀	-14.1404
束	-14.1405
秩	-14.1406
添	-14.1407
斜	-14.1408
隣	-14.1409
賠	-14.141
ょ	-14.1411
至	-14.1412
撤	-14.1413
阻	-14.1414
是	-14.1415
尊	-14.1416
勧	-14.1417
虐	-14.1418
暮	-14.1419
刷	-14.142
翻	-14.1421
繕	-14.1422
仲	-14.1423
洪	-14.1424
喚	-14.1425
阪	-14.1426
角	-14.1427
涯	-14.1428
掛	-14.1429
己	-14.143
稚	-14.1431
妥	-14.1432
遵	-14.1433
訂	-14.1434
脆	-14.1435
清	-14.1436
ふ	-14.1437
柔	-14.1438
培	-14.1439
唯	-14.144
郵	-14.1441
繋	-14.1442
靱	-14.1443
嶼	-14.1444
婦	-14.1445
蔵	-14.1446
貫	-14.1447
男	-14.1448
功	-14.1449
張	-14.145
.	-14.1451
駆	-14.1452
貯	-14.1453
禁	-14.1454
没	-14.1455
徹	-14.1456
彰	-14.1457
呼	-14.1458
耗	-14.1459
浄	-14.146
房	-14.1461
背	-14.1462
甚	-14.1463
詳	-14.1464
威	-14.1465
雷	-14.1466
吸	-14.1467
刻	-14.1468
欲	-14.1469
綱	-14.147
媒	-14.1471
脅	-14.1472
捗	-14.1473
戒	-14.1474
浸	-14.1475
索	-14.1476
昭	-14.1477
渉	-14.1478
欧	-14.1479
暴	-14.148
ゼ	-14.1481
努	-14.1482
f	-14.1483
池	-14.1484
醸	-14.1485
搭	-14.1486
扱	-14.1487
ァ	-14.1488
寿	-14.1489
殊	-14.149
酬	-14.1491
抽	-14.1492
飼	-14.1493
史	-14.1494
博	-14.1495
範	-14.1496
編	-14.1497
暖	-14.1498
紛	-14.1499
紹	-14.15
抱	-14.1501
侵	-14.1502
籍	-14.1503
械	-14.1504
挙	-14.1505
宙	-14.1506
宇	-14.1507
去	-14.1508
購	-14.1509
募	-14.151
岸	-14.1511
攻	-14.1512
朽	-14.1513
庭	-14.1514
躍	-14.1515
招	-14.1516
賃	-14.1517
魅	-14.1518
慮	-14.1519
択	-14.152
契	-14.1521
縄	-14.1522
属	-14.1523
揮	-14.1524
循	-14.1525
罪	-14.1526
守	-14.1527
盟	-14.1528
臨	-14.1529
族	-14.153
践	-14.1531
%	-14.1532
辺	-14.1533
看	-14.1534
京	-14.1535
償	-14.1536
危	-14.1537
幹	-14.1538
臣	-14.1539
映	-14.154
許	-14.1541
程	-14.1542
締	-14.1543
疾	-14.1544
救	-14.1545
避	-14.1546
困	-14.1547
閣	-14.1548
棄	-14.1549
削	-14.155
並	-14.1551
遣	-14.1552
登	-14.1553
任	-14.1554
又	-14.1554
ォ	-14.1555
需	-14.1556
般	-14.1557
迅	-14.1558
律	-14.1559
請	-14.156
患	-14.1561
察	-14.1562
貢	-14.1563
宅	-14.1564
争	-14.1565
講	-14.1566
献	-14.1567
訓	-14.1568
視	-14.1569
然	-14.157
祉	-14.1571
雇	-14.1572
格	-14.1573
該	-14.1574
響	-14.1575
震	-14.1576
銀	-14.1576
把	-14.1577
握	-14.1578
ポ	-14.1579
康	-14.158
ュ	-14.1581
険	-14.1582
軌	-14.1582
礎	-14.1582
童	-14.1582
介	-14.1583
克	-14.1583
星	-14.1583
紀	-14.1583
ョ	-14.1584
騒	-14.1584
措	-14.1584
態	-14.1585
閲	-14.1585
寡	-14.1585
ィ	-14.1586
染	-14.1587
織	-14.1587
闘	-14.1587
諮	-14.1587
偶	-14.1587
貿	-14.1587
儀	-14.1587
相	-14.1588
央	-14.1588
障	-14.1589
撮	-14.1589
ユ	-14.1589
担	-14.159
瀬	-14.159
可	-14.1591
持	-14.1592
導	-14.1593
促	-14.1594
災	-14.1595
甘	-14.1596
究	-14.1596
